{
  "version": "1.0",
  "truncation": null,
  "padding": null,
  "added_tokens": [
    {
      "id": 0,
      "content": "[PAD]",
      "single_word": false,
      "lstrip": false,
      "rstrip": false,
      "normalized": false,
      "special": true
    },
    {
      "id": 1,
      "content": "[MASK]",
      "single_word": false,
      "lstrip": false,
      "rstrip": false,
      "normalized": false,
      "special": true
    },
    {
      "id": 2,
      "content": "[SEP]",
      "single_word": false,
      "lstrip": false,
      "rstrip": false,
      "normalized": false,
      "special": true
    }
  ],
  "normalizer": {
    "type": "NFC"
  },
  "pre_tokenizer": {
    "type": "ByteLevel",
    "add_prefix_space": true,
    "trim_offsets": true,
    "use_regex": true
  },
  "post_processor": null,
  "decoder": {
    "type": "ByteLevel",
    "add_prefix_space": true,
    "trim_offsets": true,
    "use_regex": true
  },
  "model": {
    "type": "BPE",
    "dropout": null,
    "unk_token": null,
    "continuing_subword_prefix": null,
    "end_of_word_suffix": null,
    "fuse_unk": false,
    "vocab": {
      "[PAD]": 0,
      "[MASK]": 1,
      "[SEP]": 2,
      "!": 3,
      "\"": 4,
      "#": 5,
      "$": 6,
      "%": 7,
      "&": 8,
      "'": 9,
      "(": 10,
      ")": 11,
      "*": 12,
      "+": 13,
      ",": 14,
      "-": 15,
      ".": 16,
      "/": 17,
      "0": 18,
      "1": 19,
      "2": 20,
      "3": 21,
      "4": 22,
      "5": 23,
      "6": 24,
      "7": 25,
      "8": 26,
      "9": 27,
      ":": 28,
      ";": 29,
      "<": 30,
      "=": 31,
      ">": 32,
      "?": 33,
      "@": 34,
      "A": 35,
      "B": 36,
      "C": 37,
      "D": 38,
      "E": 39,
      "F": 40,
      "G": 41,
      "H": 42,
      "I": 43,
      "J": 44,
      "K": 45,
      "L": 46,
      "M": 47,
      "N": 48,
      "O": 49,
      "P": 50,
      "Q": 51,
      "R": 52,
      "S": 53,
      "T": 54,
      "U": 55,
      "V": 56,
      "W": 57,
      "X": 58,
      "Y": 59,
      "Z": 60,
      "[": 61,
      "\\": 62,
      "]": 63,
      "^": 64,
      "_": 65,
      "`": 66,
      "a": 67,
      "b": 68,
      "c": 69,
      "d": 70,
      "e": 71,
      "f": 72,
      "g": 73,
      "h": 74,
      "i": 75,
      "j": 76,
      "k": 77,
      "l": 78,
      "m": 79,
      "n": 80,
      "o": 81,
      "p": 82,
      "q": 83,
      "r": 84,
      "s": 85,
      "t": 86,
      "u": 87,
      "v": 88,
      "w": 89,
      "x": 90,
      "y": 91,
      "z": 92,
      "{": 93,
      "|": 94,
      "}": 95,
      "~": 96,
      "¡": 97,
      "¢": 98,
      "£": 99,
      "¤": 100,
      "¥": 101,
      "¦": 102,
      "§": 103,
      "¨": 104,
      "©": 105,
      "ª": 106,
      "«": 107,
      "¬": 108,
      "®": 109,
      "¯": 110,
      "°": 111,
      "±": 112,
      "²": 113,
      "³": 114,
      "´": 115,
      "µ": 116,
      "¶": 117,
      "·": 118,
      "¸": 119,
      "¹": 120,
      "º": 121,
      "»": 122,
      "¼": 123,
      "½": 124,
      "¾": 125,
      "¿": 126,
      "À": 127,
      "Á": 128,
      "Â": 129,
      "Ã": 130,
      "Ä": 131,
      "Å": 132,
      "Æ": 133,
      "Ç": 134,
      "È": 135,
      "É": 136,
      "Ê": 137,
      "Ë": 138,
      "Ì": 139,
      "Í": 140,
      "Î": 141,
      "Ï": 142,
      "Ð": 143,
      "Ñ": 144,
      "Ò": 145,
      "Ó": 146,
      "Ô": 147,
      "Õ": 148,
      "Ö": 149,
      "×": 150,
      "Ø": 151,
      "Ù": 152,
      "Ú": 153,
      "Û": 154,
      "Ü": 155,
      "Ý": 156,
      "Þ": 157,
      "ß": 158,
      "à": 159,
      "á": 160,
      "â": 161,
      "ã": 162,
      "ä": 163,
      "å": 164,
      "æ": 165,
      "ç": 166,
      "è": 167,
      "é": 168,
      "ê": 169,
      "ë": 170,
      "ì": 171,
      "í": 172,
      "î": 173,
      "ï": 174,
      "ð": 175,
      "ñ": 176,
      "ò": 177,
      "ó": 178,
      "ô": 179,
      "õ": 180,
      "ö": 181,
      "÷": 182,
      "ø": 183,
      "ù": 184,
      "ú": 185,
      "û": 186,
      "ü": 187,
      "ý": 188,
      "þ": 189,
      "ÿ": 190,
      "Ā": 191,
      "ā": 192,
      "Ă": 193,
      "ă": 194,
      "Ą": 195,
      "ą": 196,
      "Ć": 197,
      "ć": 198,
      "Ĉ": 199,
      "ĉ": 200,
      "Ċ": 201,
      "ċ": 202,
      "Č": 203,
      "č": 204,
      "Ď": 205,
      "ď": 206,
      "Đ": 207,
      "đ": 208,
      "Ē": 209,
      "ē": 210,
      "Ĕ": 211,
      "ĕ": 212,
      "Ė": 213,
      "ė": 214,
      "Ę": 215,
      "ę": 216,
      "Ě": 217,
      "ě": 218,
      "Ĝ": 219,
      "ĝ": 220,
      "Ğ": 221,
      "ğ": 222,
      "Ġ": 223,
      "ġ": 224,
      "Ģ": 225,
      "ģ": 226,
      "Ĥ": 227,
      "ĥ": 228,
      "Ħ": 229,
      "ħ": 230,
      "Ĩ": 231,
      "ĩ": 232,
      "Ī": 233,
      "ī": 234,
      "Ĭ": 235,
      "ĭ": 236,
      "Į": 237,
      "į": 238,
      "İ": 239,
      "ı": 240,
      "Ĳ": 241,
      "ĳ": 242,
      "Ĵ": 243,
      "ĵ": 244,
      "Ķ": 245,
      "ķ": 246,
      "ĸ": 247,
      "Ĺ": 248,
      "ĺ": 249,
      "Ļ": 250,
      "ļ": 251,
      "Ľ": 252,
      "ľ": 253,
      "Ŀ": 254,
      "ŀ": 255,
      "Ł": 256,
      "ł": 257,
      "Ń": 258,
      "Ġt": 259,
      "Ġa": 260,
      "he": 261,
      "in": 262,
      "re": 263,
      "Ġthe": 264,
      "on": 265,
      "er": 266,
      "Ġs": 267,
      "Ġw": 268,
      "at": 269,
      "Ġo": 270,
      "en": 271,
      "Ġc": 272,
      "it": 273,
      "is": 274,
      "an": 275,
      "or": 276,
      "Ġb": 277,
      "es": 278,
      "ing": 279,
      "Ġf": 280,
      "ed": 281,
      "Ġp": 282,
      "ou": 283,
      "Ġan": 284,
      "Ġto": 285,
      "al": 286,
      "ar": 287,
      "Ġin": 288,
      "Ġm": 289,
      "Ġof": 290,
      "âĢ": 291,
      "Ġh": 292,
      "Ġd": 293,
      "as": 294,
      "ic": 295,
      "Ġand": 296,
      "Ġth": 297,
      "le": 298,
      "ion": 299,
      "om": 300,
      "ent": 301,
      "ll": 302,
      "Ġn": 303,
      "Ġl": 304,
      "Ġre": 305,
      "st": 306,
      "ve": 307,
      "Ġe": 308,
      "ly": 309,
      "id": 310,
      "ro": 311,
      "Ġbe": 312,
      "Ġg": 313,
      "ut": 314,
      "ac": 315,
      "ot": 316,
      "ĠT": 317,
      "âĢĻ": 318,
      "Ġon": 319,
      "Ġthat": 320,
      "ay": 321,
      "ĠI": 322,
      "Ġis": 323,
      "ĠS": 324,
      "et": 325,
      "im": 326,
      "ad": 327,
      "ow": 328,
      "am": 329,
      "Ġfor": 330,
      "ig": 331,
      "se": 332,
      "ĠA": 333,
      "ver": 334,
      "ur": 335,
      "ct": 336,
      "ĠC": 337,
      "ld": 338,
      "Ġy": 339,
      "Ġu": 340,
      "Ġst": 341,
      "Ġit": 342,
      "Ġhe": 343,
      "ir": 344,
      "ation": 345,
      "ith": 346,
      "ĠM": 347,
      "Ġwh": 348,
      "ce": 349,
      "ter": 350,
      "Ġwe": 351,
      "ol": 352,
      "Ġwith": 353,
      "il": 354,
      "Ġas": 355,
      "ĠB": 356,
      "ch": 357,
      "ĠâĢ": 358,
      "ill": 359,
      "nd": 360,
      "Ġyou": 361,
      "ers": 362,
      "ĠP": 363,
      "ke": 364,
      "Ġcon": 365,
      "Ġwas": 366,
      "Ġde": 367,
      "ate": 368,
      "Ġr": 369,
      "if": 370,
      "her": 371,
      "ag": 372,
      "Ġat": 373,
      "Ġha": 374,
      "ment": 375,
      "Ġpro": 376,
      "Ġse": 377,
      "ĠW": 378,
      "ore": 379,
      "pp": 380,
      "est": 381,
      "ĠD": 382,
      "ĠH": 383,
      "âĢĿ": 384,
      "ul": 385,
      "Ġare": 386,
      "us": 387,
      "Ġcom": 388,
      "ri": 389,
      "and": 390,
      "op": 391,
      "ain": 392,
      "ist": 393,
      "ort": 394,
      "ĠR": 395,
      "Ġ2": 396,
      "rom": 397,
      "Ġne": 398,
      "igh": 399,
      "ĠThe": 400,
      "res": 401,
      "ĠF": 402,
      "um": 403,
      "od": 404,
      "Ġex": 405,
      "un": 406,
      "ab": 407,
      "Ġ1": 408,
      "Ġv": 409,
      "ĠN": 410,
      "Ġhave": 411,
      "ess": 412,
      "ity": 413,
      "em": 414,
      "Ġnot": 415,
      "ould": 416,
      "Ġ(": 417,
      "art": 418,
      "oc": 419,
      "os": 420,
      "ant": 421,
      "Ġor": 422,
      "ive": 423,
      "Ġfrom": 424,
      "Ġby": 425,
      "Ġal": 426,
      "ĠG": 427,
      "el": 428,
      "nt": 429,
      "ĠâĢľ": 430,
      "Ġsu": 431,
      "th": 432,
      "ĠL": 433,
      "Ġthis": 434,
      "Ġsh": 435,
      "Ġsa": 436,
      "ust": 437,
      "qu": 438,
      "pe": 439,
      "Ġle": 440,
      "ight": 441,
      "ies": 442,
      "ĠE": 443,
      "The": 444,
      "Ġch": 445,
      "end": 446,
      "Ġhas": 447,
      "out": 448,
      "Ġab": 449,
      "ack": 450,
      "all": 451,
      "ie": 452,
      "red": 453,
      "Ġpl": 454,
      "ĠJ": 455,
      "'s": 456,
      "Ġgo": 457,
      "ally": 458,
      "ap": 459,
      "our": 460,
      "ear": 461,
      "Ġtr": 462,
      "ome": 463,
      "ard": 464,
      "iv": 465,
      "ast": 466,
      "Ġsaid": 467,
      "ak": 468,
      "ost": 469,
      "gh": 470,
      "Ġhis": 471,
      "Ġj": 472,
      "00": 473,
      "ĠO": 474,
      "ud": 475,
      "Ġwill": 476,
      "Ġcan": 477,
      "Ġdo": 478,
      "Ġthey": 479,
      "Ġwor": 480,
      "ĠU": 481,
      "rou": 482,
      "ge": 483,
      "Ġbut": 484,
      "Ġwhe": 485,
      "ok": 486,
      "Ġall": 487,
      "Ġwho": 488,
      "ide": 489,
      "ich": 490,
      "ial": 491,
      "Ġk": 492,
      "te": 493,
      "Ġout": 494,
      "Ġtheir": 495,
      "ans": 496,
      "ther": 497,
      "ff": 498,
      "ice": 499,
      "ong": 500,
      "pt": 501,
      "ame": 502,
      "Ġmore": 503,
      "ure": 504,
      "pl": 505,
      "ions": 506,
      "age": 507,
      "act": 508,
      "Ġad": 509,
      "Ġup": 510,
      "ike": 511,
      "one": 512,
      "Ġ20": 513,
      "Ġme": 514,
      "ous": 515,
      "ine": 516,
      "Ġabout": 517,
      "ia": 518,
      "ĠK": 519,
      "ĊĊ": 520,
      "ated": 521,
      "ime": 522,
      "Ġim": 523,
      "Ġus": 524,
      "ber": 525,
      "ect": 526,
      "ra": 527,
      "cc": 528,
      "og": 529,
      "are": 530,
      "Ġone": 531,
      "Ġso": 532,
      "Ġcl": 533,
      "ake": 534,
      "ub": 535,
      "ue": 536,
      "ep": 537,
      "Ġoff": 538,
      "Ġwere": 539,
      "Ġag": 540,
      "Ġwould": 541,
      "Ġhad": 542,
      "Ġte": 543,
      "iz": 544,
      "very": 545,
      "Ġwhich": 546,
      "Ġcont": 547,
      "ind": 548,
      "Ġcomp": 549,
      "Ġbeen": 550,
      "Ġ\"": 551,
      "so": 552,
      "per": 553,
      "Ġen": 554,
      "Ġint": 555,
      "ign": 556,
      "ace": 557,
      "Ġun": 558,
      "Ġyear": 559,
      "ĠTh": 560,
      "ry": 561,
      "au": 562,
      "ip": 563,
      "Ġpe": 564,
      "Ġinc": 565,
      "Ġlike": 566,
      "ary": 567,
      "ew": 568,
      "ays": 569,
      "Ġres": 570,
      "ook": 571,
      "port": 572,
      "Ġyour": 573,
      "ven": 574,
      "ord": 575,
      "Ġ201": 576,
      "ite": 577,
      "Ġman": 578,
      "ose": 579,
      "able": 580,
      "Ġper": 581,
      "ople": 582,
      "ire": 583,
      "ile": 584,
      "Ġnew": 585,
      "mer": 586,
      "ass": 587,
      "Ġother": 588,
      "ount": 589,
      "ence": 590,
      "ations": 591,
      "ks": 592,
      "ress": 593,
      "Ġalso": 594,
      "ĠIn": 595,
      "Ġover": 596,
      "Ġsome": 597,
      ".âĢĿ": 598,
      "ib": 599,
      "ĠSt": 600,
      "Ġsp": 601,
      "Ġdis": 602,
      "ult": 603,
      "Ġapp": 604,
      "Ġthere": 605,
      "Ġpeople": 606,
      "own": 607,
      "orm": 608,
      "ance": 609,
      "Ġthan": 610,
      "Ġpart": 611,
      "ical": 612,
      "av": 613,
      "ail": 614,
      "fter": 615,
      "ru": 616,
      "ond": 617,
      "Ġthem": 618,
      "ase": 619,
      "Ġbec": 620,
      "Ġar": 621,
      "ree": 622,
      "ĠCh": 623,
      "Ġwhen": 624,
      "Ġwhat": 625,
      "Ġits": 626,
      "Ġsc": 627,
      "Ġqu": 628,
      "ough": 629,
      "Ġjust": 630,
      "ach": 631,
      "ction": 632,
      "oin": 633,
      ",âĢĿ": 634,
      "Ġany": 635,
      "Ġher": 636,
      "ĠY": 637,
      "ens": 638,
      "Ġtime": 639,
      "ident": 640,
      "Ġwork": 641,
      "Ġrec": 642,
      "lic": 643,
      "Ġour": 644,
      "Ġget": 645,
      "ĠV": 646,
      "ĠIt": 647,
      "Ġkn": 648,
      "reat": 649,
      "vel": 650,
      "Ġtw": 651,
      "Ġif": 652,
      "ian": 653,
      "âĢľ": 654,
      "Ġinto": 655,
      "wn": 656,
      "du": 657,
      "Ġmy": 658,
      "ob": 659,
      "Ġ3": 660,
      "ound": 661,
      "irst": 662,
      "ors": 663,
      "ings": 664,
      "ere": 665,
      "ick": 666,
      "ition": 667,
      "Ġpre": 668,
      "ory": 669,
      "ark": 670,
      "Ġno": 671,
      "Ġacc": 672,
      "ove": 673,
      "Ġshe": 674,
      "Ġpol": 675,
      "Ġafter": 676,
      "ang": 677,
      "ink": 678,
      "ade": 679,
      "Ġplay": 680,
      "ause": 681,
      "amp": 682,
      "ict": 683,
      "ates": 684,
      "Ġhow": 685,
      "hing": 686,
      "Ġro": 687,
      "Ġcould": 688,
      "vers": 689,
      "ne": 690,
      "oll": 691,
      "aw": 692,
      "ild": 693,
      "nder": 694,
      "Ġfirst": 695,
      "form": 696,
      "ious": 697,
      "Ġfe": 698,
      "ĠâĢĶ": 699,
      "ons": 700,
      "Ġcomm": 701,
      "ĠHe": 702,
      "Ġatt": 703,
      "Ġhim": 704,
      "erv": 705,
      "ov": 706,
      "hed": 707,
      "Ġpr": 708,
      "Ġtwo": 709,
      "Ġonly": 710,
      "Ġbl": 711,
      "day": 712,
      "Ġdec": 713,
      "Ġ-": 714,
      "ning": 715,
      "Ġact": 716,
      "ĠâĢĵ": 717,
      "Ġspe": 718,
      "we": 719,
      "ise": 720,
      "Ġback": 721,
      "rit": 722,
      "Ġbet": 723,
      "ump": 724,
      "ish": 725,
      "ts": 726,
      "ck": 727,
      "Ġmost": 728,
      "ĠTr": 729,
      "oy": 730,
      "ft": 731,
      "ces": 732,
      "rough": 733,
      "ood": 734,
      "iff": 735,
      "Ġam": 736,
      "Ġinv": 737,
      "round": 738,
      "old": 739,
      "ting": 740,
      "Ġagain": 741,
      "Ġdid": 742,
      "Ġwant": 743,
      "Ġunder": 744,
      "Ġnow": 745,
      "lud": 746,
      "Ġneed": 747,
      "Ġadd": 748,
      "ents": 749,
      "ull": 750,
      "ual": 751,
      "Ġ$": 752,
      "ublic": 753,
      "Ġcons": 754,
      "ock": 755,
      "Ġyears": 756,
      "'t": 757,
      "iss": 758,
      "Ġdes": 759,
      "Ġsee": 760,
      "ater": 761,
      "Ġbecause": 762,
      "ments": 763,
      "Ġ4": 764,
      "sel": 765,
      "Ġco": 766,
      "ec": 767,
      "ĠWe": 768,
      "Ġsec": 769,
      "Ġind": 770,
      "Ġknow": 771,
      "Ġeven": 772,
      "Ġinter": 773,
      "Ġsupp": 774,
      "ced": 775,
      "pect": 776,
      "Ġevery": 777,
      "fore": 778,
      "Ġem": 779,
      "vern": 780,
      "Ġmake": 781,
      "Th": 782,
      "man": 783,
      "Ġown": 784,
      ".\"": 785,
      "Ġthese": 786,
      "urn": 787,
      "uch": 788,
      "Ġwhere": 789,
      "ational": 790,
      "Ġ5": 791,
      "Ġ19": 792,
      "li": 793,
      "Ġbu": 794,
      "Ġlook": 795,
      "ject": 796,
      "In": 797,
      "ĠUn": 798,
      "ating": 799,
      ",\"": 800,
      "ren": 801,
      "ily": 802,
      "Ġrem": 803,
      "..": 804,
      "Ġinclud": 805,
      "ĠAnd": 806,
      "xt": 807,
      "Ġdon": 808,
      "Ġstate": 809,
      "oss": 810,
      "Ġpres": 811,
      "row": 812,
      "Ġbeing": 813,
      "Ġimp": 814,
      "Ġev": 815,
      "aking": 816,
      "Ġway": 817,
      "Ġlast": 818,
      "lect": 819,
      "iew": 820,
      "ities": 821,
      "Ġright": 822,
      "Ġreg": 823,
      "ason": 824,
      "Ġcall": 825,
      "ty": 826,
      "Ġmay": 827,
      "ased": 828,
      "Ġmany": 829,
      "Ġthrough": 830,
      "Ġcount": 831,
      "ĠBut": 832,
      "Ġdiff": 833,
      "Ġreport": 834,
      "ss": 835,
      "Ġthink": 836,
      "Ġshould": 837,
      "uring": 838,
      "Ġthen": 839,
      "oun": 840,
      "Ġsay": 841,
      "und": 842,
      "Ġthose": 843,
      "Ġdef": 844,
      "Ġshow": 845,
      "arg": 846,
      "les": 847,
      "ath": 848,
      "ange": 849,
      "ĠThis": 850,
      "ited": 851,
      "other": 852,
      "Ġsy": 853,
      "ĊĊĊ": 854,
      "Ġvery": 855,
      "Ġbr": 856,
      "ower": 857,
      "ative": 858,
      "ific": 859,
      "meric": 860,
      "Ġfl": 861,
      "Ġgovern": 862,
      "hen": 863,
      "ĠWh": 864,
      "rib": 865,
      "als": 866,
      "Ġass": 867,
      "ues": 868,
      "ont": 869,
      "Ġwell": 870,
      "Ġmuch": 871,
      "ĠNew": 872,
      "Ġdown": 873,
      "ince": 874,
      "Ġmon": 875,
      "Ġuse": 876,
      "Ġend": 877,
      "oth": 878,
      "Ġbel": 879,
      "ek": 880,
      "Ġteam": 881,
      "lp": 882,
      "ĠTrump": 883,
      "Ġbefore": 884,
      "Ġph": 885,
      "Ġdoes": 886,
      "Ġrel": 887,
      "up": 888,
      "Ġstart": 889,
      "ied": 890,
      "arly": 891,
      "com": 892,
      "ics": 893,
      "Ġlong": 894,
      "Ġke": 895,
      "gr": 896,
      "ters": 897,
      "ible": 898,
      "tle": 899,
      "ward": 900,
      "Ġfin": 901,
      "ted": 902,
      "ility": 903,
      "ĠAmeric": 904,
      "olog": 905,
      "erson": 906,
      "ton": 907,
      "Ġhelp": 908,
      "cy": 909,
      "Ġprov": 910,
      ").": 911,
      "Ġgoing": 912,
      "It": 913,
      "000": 914,
      "omet": 915,
      "Ġmade": 916,
      "Ġac": 917,
      "ife": 918,
      "Ġworld": 919,
      "Ġagainst": 920,
      "ful": 921,
      "ork": 922,
      "Ġcap": 923,
      "ener": 924,
      "Ġlead": 925,
      "We": 926,
      "Ġstud": 927,
      "Ġsuch": 928,
      "illion": 929,
      "Ġmin": 930,
      "Ġgood": 931,
      "ures": 932,
      "tain": 933,
      "Ġeff": 934,
      "Ġsm": 935,
      "ble": 936,
      "rest": 937,
      "Ġset": 938,
      "ng": 939,
      "ms": 940,
      "Ġent": 941,
      "Ġsur": 942,
      "Ġwhile": 943,
      "âĢĶ": 944,
      "its": 945,
      "Ġconf": 946,
      "ists": 947,
      "stem": 948,
      "gan": 949,
      "ool": 950,
      "Ġpoin": 951,
      "Ġstill": 952,
      "Ġgu": 953,
      "Ġoffic": 954,
      "arch": 955,
      "cess": 956,
      "Ġcr": 957,
      "ix": 958,
      "Ġtake": 959,
      "ually": 960,
      "Ġprodu": 961,
      "roup": 962,
      "Ġsays": 963,
      "any": 964,
      "ys": 965,
      "read": 966,
      "ĠRe": 967,
      "uss": 968,
      "ars": 969,
      "Ġsub": 970,
      "Ġgovernment": 971,
      "ween": 972,
      "Ġgame": 973,
      "Ġ6": 974,
      "Ġstr": 975,
      "ank": 976,
      "imes": 977,
      "io": 978,
      "Ġmed": 979,
      "alk": 980,
      "ax": 981,
      "ism": 982,
      "Ġinst": 983,
      "Ġop": 984,
      "ollow": 985,
      "ah": 986,
      "Ġlaw": 987,
      "Ġtrans": 988,
      "Ġhigh": 989,
      "hip": 990,
      "ell": 991,
      "velop": 992,
      "tern": 993,
      "alth": 994,
      "air": 995,
      "),": 996,
      "Ġgr": 997,
      "atch": 998,
      "Ġsign": 999,
      "land": 1000,
      "Ġdiffere": 1001,
      "ef": 1002,
      "Ġdisc": 1003,
      "Ġbetween": 1004,
      "Ġsim": 1005,
      "ution": 1006,
      "Ġcol": 1007,
      "Ġob": 1008,
      "ever": 1009,
      "self": 1010,
      "ner": 1011,
      "ouse": 1012,
      "Ġsame": 1013,
      "Ġnum": 1014,
      "gg": 1015,
      "Ġsupport": 1016,
      "Ġhere": 1017,
      "Ġinte": 1018,
      "way": 1019,
      "Ġmem": 1020,
      "led": 1021,
      "Ġaround": 1022,
      "Ġthough": 1023,
      "Ġrun": 1024,
      "cent": 1025,
      "ets": 1026,
      "20": 1027,
      "Ġref": 1028,
      "ives": 1029,
      "Ġthree": 1030,
      "cer": 1031,
      "Ġins": 1032,
      "hes": 1033,
      "riv": 1034,
      "oot": 1035,
      "Ġpublic": 1036,
      "ames": 1037,
      "Ġfound": 1038,
      "ave": 1039,
      "Ġser": 1040,
      "ices": 1041,
      "con": 1042,
      "Ġcour": 1043,
      "az": 1044,
      "Ġcur": 1045,
      "Ġter": 1046,
      "cial": 1047,
      "Ġexp": 1048,
      "Ġsomet": 1049,
      "Ġsystem": 1050,
      "Ġfam": 1051,
      "Ġweek": 1052,
      "Ġreally": 1053,
      "Ġtold": 1054,
      "Ġexper": 1055,
      "Ġreal": 1056,
      "Ġ10": 1057,
      "Ġserv": 1058,
      "ying": 1059,
      "pr": 1060,
      "Ġret": 1061,
      "ci": 1062,
      "ather": 1063,
      "Ġgroup": 1064,
      "min": 1065,
      "ale": 1066,
      "irect": 1067,
      "ĠLe": 1068,
      "Ġinvest": 1069,
      "ten": 1070,
      "Ġdet": 1071,
      "Ġcar": 1072,
      "Ġext": 1073,
      "Ġwom": 1074,
      "ĠAr": 1075,
      "Ġmonth": 1076,
      "Ġmod": 1077,
      "Ġday": 1078,
      "Ġhand": 1079,
      "Ġhapp": 1080,
      "ording": 1081,
      "Ġfind": 1082,
      "lin": 1083,
      "uth": 1084,
      "ĠCom": 1085,
      "Ġrep": 1086,
      "Ġduring": 1087,
      "Ġused": 1088,
      "Ġiss": 1089,
      "ash": 1090,
      "Ġdevelop": 1091,
      "cept": 1092,
      "ĠYou": 1093,
      "Ġgreat": 1094,
      "ense": 1095,
      "Ġ7": 1096,
      "ata": 1097,
      "Ġcor": 1098,
      "ages": 1099,
      "ĠSh": 1100,
      "med": 1101,
      "Ġboth": 1102,
      "Ġfr": 1103,
      "Ġbig": 1104,
      "Ġfollow": 1105,
      "Ġperson": 1106,
      "--": 1107,
      "Ġsince": 1108,
      "ared": 1109,
      "Ġfact": 1110,
      "ph": 1111,
      "Ġ[": 1112,
      "Ġcontin": 1113,
      "ĠAs": 1114,
      "ĠIs": 1115,
      "Ġpolit": 1116,
      "ĠThey": 1117,
      "rat": 1118,
      "ered": 1119,
      "Ġcre": 1120,
      "ular": 1121,
      "oh": 1122,
      "ision": 1123,
      "Ġleg": 1124,
      "akes": 1125,
      "ĠAl": 1126,
      "ĠâĢĺ": 1127,
      "ex": 1128,
      "Ġresp": 1129,
      "rent": 1130,
      "Ġsl": 1131,
      "aj": 1132,
      "ivers": 1133,
      "the": 1134,
      "Ġrequ": 1135,
      "Ġcommun": 1136,
      "arn": 1137,
      "Ġ200": 1138,
      "Ġlit": 1139,
      "Ġlot": 1140,
      "Wh": 1141,
      "Ġread": 1142,
      "Ġsoc": 1143,
      "Ġmark": 1144,
      "orth": 1145,
      "Ġcent": 1146,
      "get": 1147,
      "ved": 1148,
      "ric": 1149,
      "Ġcle": 1150,
      "Ġbus": 1151,
      "ross": 1152,
      "iness": 1153,
      "Ġopp": 1154,
      "Ġexpl": 1155,
      "This": 1156,
      "Ġvot": 1157,
      "ically": 1158,
      "ital": 1159,
      "Ġfew": 1160,
      "der": 1161,
      "Ġinf": 1162,
      "bers": 1163,
      "Ġloc": 1164,
      "ins": 1165,
      "ĠUS": 1166,
      "chool": 1167,
      "Ġ8": 1168,
      "Ġput": 1169,
      "Ġcamp": 1170,
      "ĠFr": 1171,
      "ĠDe": 1172,
      "Ġplan": 1173,
      "Ġanother": 1174,
      "Ġgener": 1175,
      "ized": 1176,
      "Ġtoo": 1177,
      "Ġbelie": 1178,
      "tt": 1179,
      "ants": 1180,
      "Ġdifferent": 1181,
      "Ġfar": 1182,
      "ness": 1183,
      "view": 1184,
      "ute": 1185,
      "Ġche": 1186,
      "Ġbest": 1187,
      "ĠSe": 1188,
      "ĠIf": 1189,
      "ention": 1190,
      "ving": 1191,
      "Ġrele": 1192,
      "Ġadv": 1193,
      "ience": 1194,
      "Ġpass": 1195,
      "Ġpower": 1196,
      "Ġart": 1197,
      "Ġhead": 1198,
      "Ġnext": 1199,
      "ines": 1200,
      "Ġdem": 1201,
      "Ġask": 1202,
      "Ġchild": 1203,
      "ody": 1204,
      "ize": 1205,
      "Ġsomething": 1206,
      "Ġdep": 1207,
      "Ġhome": 1208,
      "Ġbo": 1209,
      "Ġfil": 1210,
      "Ġcome": 1211,
      "Ġlife": 1212,
      "iet": 1213,
      "Ġthings": 1214,
      "Ġposs": 1215,
      "Ġallow": 1216,
      "thing": 1217,
      "Ġopen": 1218,
      "Ġquest": 1219,
      "uc": 1220,
      "Ġmight": 1221,
      "Ġ9": 1222,
      "ves": 1223,
      "Ġincluding": 1224,
      "ĠPro": 1225,
      "Ġinform": 1226,
      "ier": 1227,
      "Ġcountry": 1228,
      "Ġpost": 1229,
      "chn": 1230,
      "ĠFor": 1231,
      "arge": 1232,
      "Ġfeel": 1233,
      "ient": 1234,
      "Ġgot": 1235,
      "Ġsecond": 1236,
      "ik": 1237,
      "ral": 1238,
      "Ġeach": 1239,
      "Ġincre": 1240,
      "son": 1241,
      "Ġpercent": 1242,
      "Ġdirect": 1243,
      "Ġnever": 1244,
      "nce": 1245,
      "ina": 1246,
      "Ġmet": 1247,
      "Ġimport": 1248,
      "istr": 1249,
      "Ġcare": 1250,
      "ield": 1251,
      "ĠThat": 1252,
      "orn": 1253,
      "ling": 1254,
      "Ġav": 1255,
      "line": 1256,
      "Ġann": 1257,
      "Ġmillion": 1258,
      "ple": 1259,
      "gram": 1260,
      "Ġtop": 1261,
      "osed": 1262,
      "ĠInd": 1263,
      "ĠRep": 1264,
      "Ġrecent": 1265,
      "conom": 1266,
      "Ġtest": 1267,
      "aim": 1268,
      "Ġhard": 1269,
      "Ġplace": 1270,
      "Ġbuild": 1271,
      "ired": 1272,
      "Ġresult": 1273,
      "wit": 1274,
      "ately": 1275,
      "Ġgl": 1276,
      "less": 1277,
      "Ġseem": 1278,
      "leg": 1279,
      "Ġdata": 1280,
      "Ġwithout": 1281,
      "ency": 1282,
      "But": 1283,
      "Ġpresident": 1284,
      "Ġcontro": 1285,
      "ug": 1286,
      "Ġcomple": 1287,
      "Ġseason": 1288,
      "ĠBl": 1289,
      "Ġ'": 1290,
      "Ġwar": 1291,
      "oney": 1292,
      "Ġnumber": 1293,
      "Ġhum": 1294,
      "ised": 1295,
      "Ġappro": 1296,
      "gy": 1297,
      "Ġcase": 1298,
      "Ġfour": 1299,
      "uro": 1300,
      "Ġbetter": 1301,
      "ways": 1302,
      "Ġpay": 1303,
      "Ġstand": 1304,
      "riend": 1305,
      "Ġnews": 1306,
      "Ġcompany": 1307,
      "Ġpartic": 1308,
      "ĠAn": 1309,
      "ret": 1310,
      "Ġproble": 1311,
      "ering": 1312,
      "Ġprev": 1313,
      "Ġide": 1314,
      "Ġbeh": 1315,
      "rem": 1316,
      "Ġrest": 1317,
      "Ġfull": 1318,
      "Ġtri": 1319,
      "Ġlet": 1320,
      "He": 1321,
      "Ġkeep": 1322,
      "Ġmov": 1323,
      "app": 1324,
      "Ġ0": 1325,
      "Ġhealth": 1326,
      "Ġinterest": 1327,
      "Ġed": 1328,
      "Ġmove": 1329,
      "ished": 1330,
      "ĠZ": 1331,
      "Ġpolice": 1332,
      "Ġel": 1333,
      "Ġusing": 1334,
      "Ġattack": 1335,
      "ably": 1336,
      "to": 1337,
      "Ġbusiness": 1338,
      "Ġturn": 1339,
      "ploy": 1340,
      "Ġless": 1341,
      "ajor": 1342,
      "Ġleft": 1343,
      "Ġcalled": 1344,
      "Ġprocess": 1345,
      "Ġbro": 1346,
      "ready": 1347,
      "Ġval": 1348,
      "ract": 1349,
      "ases": 1350,
      "ode": 1351,
      "Ġpop": 1352,
      "Ġdidn": 1353,
      "Ġofficial": 1354,
      "ann": 1355,
      "Ġeconom": 1356,
      "Ġcurrent": 1357,
      "Ġpoint": 1358,
      "Ġpos": 1359,
      "Ġmil": 1360,
      "Ġwin": 1361,
      "ocrat": 1362,
      "be": 1363,
      "Ġlittle": 1364,
      "ĠThere": 1365,
      "ead": 1366,
      "cl": 1367,
      "mit": 1368,
      "Ġchange": 1369,
      "Ġ.": 1370,
      "ology": 1371,
      "Ġdr": 1372,
      "Ġsit": 1373,
      "ains": 1374,
      "resident": 1375,
      "ature": 1376,
      "used": 1377,
      "inal": 1378,
      "Ġmain": 1379,
      "ĠSo": 1380,
      "Ġinformation": 1381,
      "Ġtechn": 1382,
      "lection": 1383,
      "Ġlist": 1384,
      "Ġschool": 1385,
      "Ġexpect": 1386,
      "Ġalready": 1387,
      "Ġproject": 1388,
      "iving": 1389,
      "Ġeffect": 1390,
      "Ġlevel": 1391,
      "Ġeas": 1392,
      "Ġprogram": 1393,
      "aff": 1394,
      "aign": 1395,
      "Ġfun": 1396,
      "uck": 1397,
      "ger": 1398,
      "oad": 1399,
      "Ġprom": 1400,
      "ĠDem": 1401,
      "Ġsol": 1402,
      "urs": 1403,
      "Ġwomen": 1404,
      "ird": 1405,
      "Ġrese": 1406,
      "Ġable": 1407,
      "Ġvis": 1408,
      "Ġrece": 1409,
      "ĠAd": 1410,
      "Ġclaim": 1411,
      "urity": 1412,
      "rap": 1413,
      "ided": 1414,
      "reen": 1415,
      "Ġprof": 1416,
      "stand": 1417,
      "ĠQ": 1418,
      "Ġmat": 1419,
      "Ġwhy": 1420,
      "Ġbre": 1421,
      "Ġform": 1422,
      "ĠAmerican": 1423,
      "Ġhist": 1424,
      "uthor": 1425,
      "Ġmoney": 1426,
      "Ġsmall": 1427,
      "Ġorgan": 1428,
      "ruct": 1429,
      "Ġalways": 1430,
      "vert": 1431,
      "Ġpast": 1432,
      "Ġjob": 1433,
      "ama": 1434,
      "ians": 1435,
      "Ġcampaign": 1436,
      "Ġfree": 1437,
      "ption": 1438,
      "Ġgrow": 1439,
      "iversity": 1440,
      "ron": 1441,
      "ission": 1442,
      "outh": 1443,
      "acy": 1444,
      "10": 1445,
      "Ġspec": 1446,
      "Ġmajor": 1447,
      "ĠBe": 1448,
      "ister": 1449,
      "Ġchang": 1450,
      "Ġvide": 1451,
      "Ġcity": 1452,
      "Ġdays": 1453,
      "Ġoper": 1454,
      "Ġaff": 1455,
      "Ġunt": 1456,
      "ĠUnited": 1457,
      "Ġty": 1458,
      "Ġimportant": 1459,
      "ĠHow": 1460,
      "Ġhappen": 1461,
      "side": 1462,
      "Ġwrit": 1463,
      "Ġtalk": 1464,
      "Ġaccording": 1465,
      "Ġpat": 1466,
      "ĠGo": 1467,
      "Ġchar": 1468,
      "Ġdeal": 1469,
      "bs": 1470,
      "ĠPh": 1471,
      "ohn": 1472,
      "ĠPresident": 1473,
      "anc": 1474,
      "Ġmarket": 1475,
      "Ġpolic": 1476,
      "Ġthing": 1477,
      "ards": 1478,
      "ĠShe": 1479,
      "ox": 1480,
      "ney": 1481,
      "ending": 1482,
      "ior": 1483,
      "ides": 1484,
      "Ġfamily": 1485,
      "iven": 1486,
      "Ġdesign": 1487,
      "ertain": 1488,
      "Ġaway": 1489,
      "Ġelect": 1490,
      "work": 1491,
      "Ġhop": 1492,
      "Ġcost": 1493,
      "Ġleast": 1494,
      "Ġworking": 1495,
      "here": 1496,
      "Ġprote": 1497,
      "Ġclass": 1498,
      "Ġdoesn": 1499,
      "atur": 1500,
      "Ġformer": 1501,
      "ured": 1502,
      "ider": 1503,
      "ĠCan": 1504,
      "As": 1505,
      "Ġmaking": 1506,
      "ries": 1507,
      "els": 1508,
      "Ġfund": 1509,
      "ained": 1510,
      "year": 1511,
      "Ġpolitical": 1512,
      "eral": 1513,
      "âĢ¦": 1514,
      "Ġmust": 1515,
      "ps": 1516,
      "Ġsocial": 1517,
      "Ġmedia": 1518,
      "Ġsk": 1519,
      "augh": 1520,
      "Ġcame": 1521,
      "arent": 1522,
      "sc": 1523,
      "ising": 1524,
      "Ġest": 1525,
      "Ġve": 1526,
      "Ġold": 1527,
      "Ġintern": 1528,
      "ality": 1529,
      "Ġstory": 1530,
      "Ġlater": 1531,
      "Ġfac": 1532,
      "Ġkill": 1533,
      "If": 1534,
      "ĠRuss": 1535,
      "br": 1536,
      "rist": 1537,
      "ER": 1538,
      "Ġfore": 1539,
      "Ġkind": 1540,
      "ator": 1541,
      "Ġconst": 1542,
      "Ġdist": 1543,
      "ream": 1544,
      "ample": 1545,
      "Ġtell": 1546,
      "iol": 1547,
      "ĠDemocrat": 1548,
      "Ġenough": 1549,
      "ccess": 1550,
      "ury": 1551,
      "aring": 1552,
      "ional": 1553,
      "ified": 1554,
      "Ġrecord": 1555,
      "'re": 1556,
      "Ġview": 1557,
      "ĠSp": 1558,
      "...": 1559,
      "Ġbook": 1560,
      "Ġfriend": 1561,
      "Ġinvestig": 1562,
      "pped": 1563,
      "icle": 1564,
      "Ġmeet": 1565,
      "uture": 1566,
      "eng": 1567,
      "ware": 1568,
      "Ġ12": 1569,
      "arli": 1570,
      "ued": 1571,
      "ley": 1572,
      "Ġlarge": 1573,
      "ern": 1574,
      "Ġes": 1575,
      "Ġtook": 1576,
      "St": 1577,
      "Ġbecome": 1578,
      "Ġmen": 1579,
      "alf": 1580,
      "ĠMar": 1581,
      "Ġvar": 1582,
      "Ġtoday": 1583,
      "by": 1584,
      "Ġorder": 1585,
      "Ġgive": 1586,
      "ization": 1587,
      "ĠEuro": 1588,
      "artment": 1589,
      "Ġuntil": 1590,
      "ĠMay": 1591,
      "ane": 1592,
      "ived": 1593,
      "Ġtax": 1594,
      "Ġpot": 1595,
      "ush": 1596,
      "Ġline": 1597,
      "Ġ15": 1598,
      "aining": 1599,
      "Ġair": 1600,
      "Ġla": 1601,
      "__": 1602,
      "Ġcapt": 1603,
      "ential": 1604,
      "ĠPl": 1605,
      "witter": 1606,
      "Ġwon": 1607,
      "ee": 1608,
      "ĠSc": 1609,
      "Ġmean": 1610,
      "ott": 1611,
      "for": 1612,
      "Ġbit": 1613,
      "//": 1614,
      "There": 1615,
      "ony": 1616,
      "enn": 1617,
      "ĠRepublic": 1618,
      "Ġhuman": 1619,
      "imate": 1620,
      "Ġannoun": 1621,
      "Ġacross": 1622,
      "co": 1623,
      "ember": 1624,
      "Ġactually": 1625,
      "ror": 1626,
      "iting": 1627,
      "book": 1628,
      "Ġtimes": 1629,
      "Ġevent": 1630,
      "Ġpress": 1631,
      "ĠCl": 1632,
      "Ġreported": 1633,
      "ĠJohn": 1634,
      "Ġseen": 1635,
      "aps": 1636,
      "Ġwhether": 1637,
      "Ġdev": 1638,
      "ched": 1639,
      "Ġever": 1640,
      "Ġgames": 1641,
      "Ġdoing": 1642,
      "Ġreturn": 1643,
      "ĠMc": 1644,
      "aken": 1645,
      "Ġlikely": 1646,
      "ald": 1647,
      "Ġproduct": 1648,
      "Ġmar": 1649,
      "Ġchildren": 1650,
      "Ġperform": 1651,
      "19": 1652,
      "most": 1653,
      "ĠSy": 1654,
      "Ġcommunity": 1655,
      "ison": 1656,
      "Ġbas": 1657,
      "gin": 1658,
      "ortun": 1659,
      "ands": 1660,
      "Ġmembers": 1661,
      "Ġsure": 1662,
      "Ġcrit": 1663,
      "iously": 1664,
      "Ġplayers": 1665,
      "wh": 1666,
      "Ġpo": 1667,
      "Ġnight": 1668,
      "Ġhaving": 1669,
      "ats": 1670,
      "ĠHouse": 1671,
      "Ġfuture": 1672,
      "ene": 1673,
      "Ġoften": 1674,
      "Ġdeb": 1675,
      "Ġsever": 1676,
      "Ġfive": 1677,
      "Ġra": 1678,
      "iqu": 1679,
      "Ġsex": 1680,
      "ĠAll": 1681,
      "idence": 1682,
      "Ġant": 1683,
      "ĠMr": 1684,
      "ĠOr": 1685,
      "Ġhour": 1686,
      "Ġconcer": 1687,
      "ĠAm": 1688,
      "Ġavail": 1689,
      "Ġmonths": 1690,
      "Ġyoung": 1691,
      "ourn": 1692,
      "Ġappear": 1693,
      "Ġsing": 1694,
      "Ġearly": 1695,
      "Ġquestion": 1696,
      "ories": 1697,
      "let": 1698,
      "Ġauthor": 1699,
      "Ġcontrol": 1700,
      "Ġactiv": 1701,
      "Ġdri": 1702,
      "Ġ&": 1703,
      "sh": 1704,
      "gress": 1705,
      "ĠEurope": 1706,
      "nect": 1707,
      "Ġ--": 1708,
      "ĠAt": 1709,
      "Ġalong": 1710,
      "ither": 1711,
      "Ġwent": 1712,
      "ially": 1713,
      "Ġdone": 1714,
      "Ġinvol": 1715,
      "idd": 1716,
      "Ġshort": 1717,
      "Ġviol": 1718,
      "And": 1719,
      "ots": 1720,
      "itive": 1721,
      "mber": 1722,
      "Ġunderstand": 1723,
      "Ġseveral": 1724,
      "Ġname": 1725,
      "ĠCon": 1726,
      "Ġlocal": 1727,
      "Ġeng": 1728,
      "Ġprop": 1729,
      "Ġvideo": 1730,
      "Ġ2016": 1731,
      "Ġwr": 1732,
      "Ġsaf": 1733,
      "Ġhold": 1734,
      "ended": 1735,
      "Ġ18": 1736,
      "Ġ=": 1737,
      "Ġwithin": 1738,
      "Ġpriv": 1739,
      "Ġcertain": 1740,
      "ague": 1741,
      "Ad": 1742,
      "Ġwater": 1743,
      "Ġpossible": 1744,
      "ĠSte": 1745,
      "Ġamong": 1746,
      "ĠTe": 1747,
      "ones": 1748,
      "Ġword": 1749,
      "Ġcho": 1750,
      "Ġaccount": 1751,
      "ĠYork": 1752,
      "Ġpur": 1753,
      "empt": 1754,
      "ĠMin": 1755,
      "Ġequ": 1756,
      "50": 1757,
      "Ġmilit": 1758,
      "ium": 1759,
      "Ġindust": 1760,
      "arm": 1761,
      "Ġside": 1762,
      "Ġsuccess": 1763,
      "Ġnet": 1764,
      "Ġfight": 1765,
      "Ġmeans": 1766,
      "Ġyet": 1767,
      "lf": 1768,
      "ster": 1769,
      "iver": 1770,
      "back": 1771,
      "ĠBr": 1772,
      "Ġonce": 1773,
      "rew": 1774,
      "ustom": 1775,
      "ggest": 1776,
      "Ġ11": 1777,
      "ederal": 1778,
      "Ġben": 1779,
      "ball": 1780,
      "une": 1781,
      "ĠCol": 1782,
      "ivid": 1783,
      "Ġcourse": 1784,
      "Ġexample": 1785,
      "ĠState": 1786,
      "raft": 1787,
      "Ġasked": 1788,
      "Ġprot": 1789,
      "Ġfail": 1790,
      "Ġaccess": 1791,
      "iron": 1792,
      "Ġadded": 1793,
      "igr": 1794,
      "Ġgetting": 1795,
      "Ġident": 1796,
      "ĠStates": 1797,
      "urther": 1798,
      "Ġarg": 1799,
      "verage": 1800,
      "Ġcharac": 1801,
      "Ġmakes": 1802,
      "Ġsuggest": 1803,
      "oci": 1804,
      "Ġparty": 1805,
      "ulation": 1806,
      "Ġcond": 1807,
      "ĠOn": 1808,
      "aged": 1809,
      "Ġemploy": 1810,
      "Ġavailable": 1811,
      "itions": 1812,
      "ĠOb": 1813,
      "Ġnon": 1814,
      "Ġcomes": 1815,
      "Ġnational": 1816,
      "Ġvers": 1817,
      "ubl": 1818,
      "ensive": 1819,
      "Ġproblem": 1820,
      "Ġstrong": 1821,
      "Ġsent": 1822,
      "You": 1823,
      "Ġ30": 1824,
      "ief": 1825,
      "Ġdesc": 1826,
      "Ġothers": 1827,
      "orld": 1828,
      "add": 1829,
      "ances": 1830,
      "ler": 1831,
      "ĠNo": 1832,
      "Ġbelieve": 1833,
      "ĠDon": 1834,
      "ĠIm": 1835,
      "Ġclose": 1836,
      "Ġris": 1837,
      "Ġmom": 1838,
      "Ġcommit": 1839,
      "Ġtrad": 1840,
      "Ġgiven": 1841,
      "Ġdeath": 1842,
      "Ġlim": 1843,
      "rop": 1844,
      "ĠX": 1845,
      "Ġfoc": 1846,
      "ament": 1847,
      "uff": 1848,
      "Ġreason": 1849,
      "af": 1850,
      "ai": 1851,
      "ĠWhen": 1852,
      "Ġocc": 1853,
      "IN": 1854,
      "ability": 1855,
      "arr": 1856,
      "hers": 1857,
      "ĠSen": 1858,
      "Ġcreat": 1859,
      "Ġthought": 1860,
      "osp": 1861,
      "ober": 1862,
      "int": 1863,
      "Ġfollowing": 1864,
      "Ġlove": 1865,
      "Ġland": 1866,
      "ĠUniversity": 1867,
      "Ġissue": 1868,
      "not": 1869,
      "of": 1870,
      "por": 1871,
      "For": 1872,
      "ĠCent": 1873,
      "Ġhig": 1874,
      "Ġknown": 1875,
      "Ġago": 1876,
      "Ġstarted": 1877,
      "unch": 1878,
      "use": 1879,
      "ored": 1880,
      "Ġ2017": 1881,
      "Ġsour": 1882,
      "ashing": 1883,
      "Ġi": 1884,
      "Ġclear": 1885,
      "ĠCo": 1886,
      "Ġsecurity": 1887,
      "Ġexperience": 1888,
      "resent": 1889,
      "Ġimpro": 1890,
      ".,": 1891,
      "Ġlow": 1892,
      "Ġlight": 1893,
      "iber": 1894,
      "ĠEx": 1895,
      "ĠPr": 1896,
      "iety": 1897,
      "Ġcourt": 1898,
      "Ġtrying": 1899,
      "Ġcut": 1900,
      "pro": 1901,
      "Ġ#": 1902,
      "Ġtoget": 1903,
      "Ġtogether": 1904,
      "Ġlooking": 1905,
      "erence": 1906,
      "Ġlive": 1907,
      "Ġhistory": 1908,
      "Ġprob": 1909,
      "AT": 1910,
      "ged": 1911,
      "Ġbased": 1912,
      "itional": 1913,
      "Ġeffort": 1914,
      "aster": 1915,
      "nes": 1916,
      "Ġ,": 1917,
      "Ġmiss": 1918,
      "uly": 1919,
      "Ġbat": 1920,
      "Ġsaying": 1921,
      "ĠChrist": 1922,
      "Ġjoin": 1923,
      "ran": 1924,
      "Ġorig": 1925,
      "ails": 1926,
      "ĠCanad": 1927,
      "Ġconcern": 1928,
      "ators": 1929,
      "utes": 1930,
      "Ġanal": 1931,
      "Ġpar": 1932,
      "ĠChina": 1933,
      "Ġmult": 1934,
      "eb": 1935,
      "my": 1936,
      "Ġcompan": 1937,
      "Ġaut": 1938,
      "Ġthreat": 1939,
      "selves": 1940,
      "Ġvict": 1941,
      "Ġ2018": 1942,
      "Ġisn": 1943,
      "Ġca": 1944,
      "ilar": 1945,
      "Ġrul": 1946,
      "acebook": 1947,
      "ĠCar": 1948,
      "RE": 1949,
      "ĠWhat": 1950,
      "://": 1951,
      "Ġmus": 1952,
      "reed": 1953,
      "ĠAmerica": 1954,
      "aid": 1955,
      "Ġhit": 1956,
      "ination": 1957,
      "Ġsix": 1958,
      "Ġseries": 1959,
      "ĠPol": 1960,
      "ĠComm": 1961,
      "Ġalmost": 1962,
      "cing": 1963,
      "ĠOne": 1964,
      "ividual": 1965,
      "Ġtaken": 1966,
      "Ġpolicy": 1967,
      "Ġprotect": 1968,
      "What": 1969,
      "ON": 1970,
      "raw": 1971,
      "ĠDep": 1972,
      "ument": 1973,
      "Ġpract": 1974,
      "uge": 1975,
      "iday": 1976,
      "11": 1977,
      "Ġarea": 1978,
      "Ġblock": 1979,
      "Ġidea": 1980,
      "Ġcompet": 1981,
      "ote": 1982,
      "Ġfav": 1983,
      "ĠFl": 1984,
      "30": 1985,
      "rael": 1986,
      "reet": 1987,
      "Ġproper": 1988,
      "Ġimm": 1989,
      "cially": 1990,
      "Ġcomplete": 1991,
      "Ġbring": 1992,
      "Ġbehind": 1993,
      "Ġstatement": 1994,
      "obal": 1995,
      "Ġhalf": 1996,
      "rown": 1997,
      "Ġface": 1998,
      "ien": 1999,
      "viron": 2000,
      "ĠMan": 2001,
      "Ġdiscuss": 2002,
      "Ġmess": 2003,
      "Ġphot": 2004,
      "ĠNews": 2005,
      "Ġbill": 2006,
      "Ġcustom": 2007,
      "Ġnear": 2008,
      "Ġdecision": 2009,
      "Ġstudy": 2010,
      "ĠCal": 2011,
      "Ġtot": 2012,
      "Ġmor": 2013,
      "Ġkey": 2014,
      "Ġtaking": 2015,
      "BC": 2016,
      "go": 2017,
      "ify": 2018,
      "Ġanything": 2019,
      "ĠSec": 2020,
      "wards": 2021,
      "Ġservice": 2022,
      "Ġentire": 2023,
      "Ġcoming": 2024,
      "ĠAust": 2025,
      "Ġquick": 2026,
      "Ġofficials": 2027,
      "Ġfood": 2028,
      "ograp": 2029,
      "Ġcompanies": 2030,
      "vertise": 2031,
      "Ġadmin": 2032,
      "Ġindividual": 2033,
      "ĠNorth": 2034,
      "ĠBrit": 2035,
      "Ġchall": 2036,
      "Ġresearch": 2037,
      "Ġcoun": 2038,
      "Ġspecial": 2039,
      "ert": 2040,
      "rug": 2041,
      "Ġpresent": 2042,
      "Ġredu": 2043,
      "ĠTo": 2044,
      "ev": 2045,
      "ales": 2046,
      "Ġbad": 2047,
      "Ġsomeone": 2048,
      "Ġtarg": 2049,
      "ming": 2050,
      "reme": 2051,
      "Ġprovide": 2052,
      "Ġsum": 2053,
      "ĠInst": 2054,
      "lement": 2055,
      "Ġfurther": 2056,
      "Ġconnect": 2057,
      "Ġbenef": 2058,
      "Ġtra": 2059,
      "Ġfall": 2060,
      "Ġspace": 2061,
      "Ġpubl": 2062,
      "Ġ199": 2063,
      "Ġsus": 2064,
      "aper": 2065,
      "Ġ16": 2066,
      "ids": 2067,
      "istration": 2068,
      "Ġsingle": 2069,
      "Ġcand": 2070,
      "par": 2071,
      "Ġstep": 2072,
      "Ġmilitary": 2073,
      "ĠAf": 2074,
      "Ġ14": 2075,
      "Ġalleg": 2076,
      "Ġissues": 2077,
      "Ġcompl": 2078,
      "Ġwanted": 2079,
      "rote": 2080,
      "Ġfoot": 2081,
      "ĠNational": 2082,
      "Ġz": 2083,
      "off": 2084,
      "ows": 2085,
      "That": 2086,
      "though": 2087,
      "Ġtry": 2088,
      "----": 2089,
      "When": 2090,
      "ĠEng": 2091,
      "Ġattempt": 2092,
      "Ġleaders": 2093,
      "atic": 2094,
      "Ġcreate": 2095,
      "over": 2096,
      "Ġmass": 2097,
      "asing": 2098,
      "Ġmind": 2099,
      "ams": 2100,
      "Ġlearn": 2101,
      "itor": 2102,
      "12": 2103,
      "Ġer": 2104,
      "irc": 2105,
      "ĠApp": 2106,
      "icult": 2107,
      "'ve": 2108,
      "Ġcontinue": 2109,
      "On": 2110,
      "An": 2111,
      "Ġ2015": 2112,
      "ĠSu": 2113,
      "Ġpoints": 2114,
      "ĠCity": 2115,
      "Ġblack": 2116,
      "ault": 2117,
      "ĠTwitter": 2118,
      "Ġdue": 2119,
      "Ġ/": 2120,
      "ashington": 2121,
      "arc": 2122,
      "Ġmeas": 2123,
      "Ġfire": 2124,
      "itc": 2125,
      "ĠJan": 2126,
      "IS": 2127,
      "ĠWorld": 2128,
      "Ġcomb": 2129,
      "aces": 2130,
      "Ġopt": 2131,
      "vertisement": 2132,
      "elt": 2133,
      "Ġcou": 2134,
      "sec": 2135,
      "ĠIsrael": 2136,
      "Ġfederal": 2137,
      "Ġbody": 2138,
      "ĠWith": 2139,
      "Ġthird": 2140,
      "vironment": 2141,
      "Ġcaption": 2142,
      "Ġlat": 2143,
      "arlier": 2144,
      "Ġdoc": 2145,
      "Ġsignific": 2146,
      "pping": 2147,
      "Ġfeat": 2148,
      "Ġcult": 2149,
      "pite": 2150,
      "Ġwa": 2151,
      "Ġrather": 2152,
      "ĠSouth": 2153,
      "Ġoffice": 2154,
      "eal": 2155,
      "Ġaddress": 2156,
      "yn": 2157,
      "Ġpick": 2158,
      "Ġstop": 2159,
      "Ġ|": 2160,
      "ĠWar": 2161,
      "play": 2162,
      "ully": 2163,
      "Ġplayer": 2164,
      "ĠObama": 2165,
      "Ġexec": 2166,
      "Ġsw": 2167,
      "Ġ13": 2168,
      "Ġsimilar": 2169,
      "ibility": 2170,
      "Ġtre": 2171,
      "head": 2172,
      "ined": 2173,
      "ĠGu": 2174,
      "ply": 2175,
      "lling": 2176,
      "Ġwrote": 2177,
      "So": 2178,
      "Ġrelations": 2179,
      "uation": 2180,
      "Ġelection": 2181,
      "Ġenc": 2182,
      "AN": 2183,
      "Ġcountries": 2184,
      "Ġrights": 2185,
      "Ġdevelopment": 2186,
      "Ġindustry": 2187,
      "Ġeverything": 2188,
      "Ġelse": 2189,
      "ively": 2190,
      "Ġ2019": 2191,
      "ades": 2192,
      "Ġwatch": 2193,
      "Ġhours": 2194,
      "Ġoutside": 2195,
      "ogle": 2196,
      "erman": 2197,
      "Ġfront": 2198,
      "Ġhouse": 2199,
      "Ġstudents": 2200,
      "ana": 2201,
      "ĠGr": 2202,
      "Ch": 2203,
      "pecially": 2204,
      "oke": 2205,
      "Ġtreat": 2206,
      "Ġnothing": 2207,
      "ĠJust": 2208,
      "Ġpret": 2209,
      "eks": 2210,
      "à¤": 2211,
      "ĠRes": 2212,
      "Ġexist": 2213,
      "ĠWashington": 2214,
      "Ġneeds": 2215,
      "Ġbegin": 2216,
      "Ġaction": 2217,
      "Ġdescrib": 2218,
      "sw": 2219,
      "olution": 2220,
      "Ġhowever": 2221,
      "Ġprobably": 2222,
      "Ġfig": 2223,
      "Ġsuper": 2224,
      "Ġcharg": 2225,
      "ÂŃ": 2226,
      "ung": 2227,
      "Ġrole": 2228,
      "oon": 2229,
      "Ġinit": 2230,
      "ring": 2231,
      "Ġbreak": 2232,
      "ĠAss": 2233,
      "How": 2234,
      "Ġcandid": 2235,
      "ender": 2236,
      "Ġfield": 2237,
      "Ġfilm": 2238,
      "Ġmatter": 2239,
      "Ġroom": 2240,
      "duct": 2241,
      "ĠMarch": 2242,
      "ournal": 2243,
      "Ġfinal": 2244,
      "Ġinterview": 2245,
      "Ġstates": 2246,
      "Ġbelow": 2247,
      "Ġwhole": 2248,
      "Ġeither": 2249,
      "Ġneg": 2250,
      "âĢĵ": 2251,
      "ww": 2252,
      "ask": 2253,
      "Ġener": 2254,
      "Ġagree": 2255,
      "Ġinfl": 2256,
      "Ġself": 2257,
      "Ġservices": 2258,
      "Ġreleased": 2259,
      "AR": 2260,
      "Ġprofess": 2261,
      "Ġlab": 2262,
      "Ġconv": 2263,
      "Ġrepl": 2264,
      "amed": 2265,
      "Ġamount": 2266,
      "Ġwoman": 2267,
      "sy": 2268,
      "Ġlegal": 2269,
      "Ġdi": 2270,
      "Ġspecific": 2271,
      "Ġinj": 2272,
      "mb": 2273,
      "Ġrepresent": 2274,
      "att": 2275,
      "Ġbillion": 2276,
      "ĠPart": 2277,
      "Ġ100": 2278,
      "Ġ17": 2279,
      "Ġonline": 2280,
      "ape": 2281,
      "now": 2282,
      "Ġsite": 2283,
      "Ġrunning": 2284,
      "15": 2285,
      "Ġseems": 2286,
      "arth": 2287,
      "Ġposition": 2288,
      "irl": 2289,
      "Ġcases": 2290,
      "inc": 2291,
      "ĠMed": 2292,
      "AS": 2293,
      "ĠFacebook": 2294,
      "ilt": 2295,
      "ently": 2296,
      "Ġsignificant": 2297,
      "Ġopportun": 2298,
      "Ġeveryone": 2299,
      "ients": 2300,
      "Ġgeneral": 2301,
      "Ġdam": 2302,
      "anks": 2303,
      "Ġdou": 2304,
      "ĠDav": 2305,
      "Ġrelease": 2306,
      "iod": 2307,
      "ried": 2308,
      "Ġweeks": 2309,
      "ĠEd": 2310,
      "ager": 2311,
      "Ġstri": 2312,
      "ili": 2313,
      "arter": 2314,
      "ĠHowever": 2315,
      "ĠMond": 2316,
      "Ġbuilding": 2317,
      "Ġ:": 2318,
      "Ġpri": 2319,
      "Ġ25": 2320,
      "Ġshows": 2321,
      "Ġdeep": 2322,
      "reg": 2323,
      "Ġrespons": 2324,
      "Ġ2014": 2325,
      "iding": 2326,
      "ural": 2327,
      "Ġwasn": 2328,
      "Ġforward": 2329,
      "Ġabove": 2330,
      "Ġlarg": 2331,
      "Ġstat": 2332,
      "Ġdifficult": 2333,
      "amer": 2334,
      "Ġexc": 2335,
      "ift": 2336,
      "Ġgun": 2337,
      "ĠWhite": 2338,
      "Ġannounced": 2339,
      "Ġball": 2340,
      "Ġstay": 2341,
      "umb": 2342,
      "like": 2343,
      "Ġple": 2344,
      "'m": 2345,
      "Ġthemselves": 2346,
      "omm": 2347,
      "Ġrecently": 2348,
      "Ġwebs": 2349,
      "Ġinclude": 2350,
      "Ġhost": 2351,
      "Ġevidence": 2352,
      "irm": 2353,
      "ĠFriday": 2354,
      "ĠDepartment": 2355,
      "ribut": 2356,
      "right": 2357,
      "Ġap": 2358,
      "Ġhom": 2359,
      "Ġvote": 2360,
      "Ġhimself": 2361,
      "Ġdom": 2362,
      "ancial": 2363,
      "time": 2364,
      "Ġpotential": 2365,
      "Ġrisk": 2366,
      ".)": 2367,
      "uesday": 2368,
      "Ġupd": 2369,
      "ogn": 2370,
      "light": 2371,
      "ĠGe": 2372,
      "Ġvir": 2373,
      "Ġtechnology": 2374,
      "ivil": 2375,
      "Ġimpact": 2376,
      "Ġey": 2377,
      "Ġitself": 2378,
      "Ġ50": 2379,
      "oe": 2380,
      "ĠClin": 2381,
      "Ġcheck": 2382,
      "Ġtem": 2383,
      "ĠMonday": 2384,
      "Ġcontract": 2385,
      "osing": 2386,
      "Ġcop": 2387,
      "ccording": 2388,
      "aced": 2389,
      "Ġvalue": 2390,
      "Ġsound": 2391,
      "Ġgroups": 2392,
      "Ġapplic": 2393,
      "lim": 2394,
      "Ġusers": 2395,
      "Ġcontent": 2396,
      "Ġsaw": 2397,
      "abl": 2398,
      "ograph": 2399,
      "Ġdrug": 2400,
      "Ġground": 2401,
      "medi": 2402,
      "Ġenergy": 2403,
      "Ġshare": 2404,
      "Ġtrack": 2405,
      "aul": 2406,
      "Ġbegan": 2407,
      "ports": 2408,
      "ĠCong": 2409,
      "Ġespecially": 2410,
      "onse": 2411,
      "Ġsimply": 2412,
      "ĠTuesday": 2413,
      "Ġarticle": 2414,
      "Ġred": 2415,
      "ĠAb": 2416,
      "Ġmoment": 2417,
      "Ġtyp": 2418,
      "ners": 2419,
      "Ġjud": 2420,
      "ĠWest": 2421,
      "Ġfocus": 2422,
      "Ġshoot": 2423,
      "Ġwhite": 2424,
      "Ġstaff": 2425,
      "Ġcred": 2426,
      "me": 2427,
      "Ġfriends": 2428,
      "Ġexpected": 2429,
      "They": 2430,
      "Ġlate": 2431,
      "Ġlost": 2432,
      "ery": 2433,
      "Ġtrue": 2434,
      "Ġhope": 2435,
      "Ġplaying": 2436,
      "âĢĿ.": 2437,
      "Ġpict": 2438,
      "Ġchanges": 2439,
      "order": 2440,
      "Ġreve": 2441,
      "atform": 2442,
      "Ġeconomic": 2443,
      "isc": 2444,
      "rodu": 2445,
      "ĠAustral": 2446,
      "Ġmot": 2447,
      "Ã©": 2448,
      "ches": 2449,
      "iddle": 2450,
      "Ġquite": 2451,
      "**": 2452,
      "Ġcharacter": 2453,
      "Ġabs": 2454,
      "ĠWed": 2455,
      "Advertisement": 2456,
      "Ġstru": 2457,
      "Ġdeter": 2458,
      "uel": 2459,
      "Ġdest": 2460,
      "action": 2461,
      "tee": 2462,
      "Ġsoon": 2463,
      "aging": 2464,
      "pril": 2465,
      "Ġresults": 2466,
      "ij": 2467,
      "Ġtarget": 2468,
      "where": 2469,
      "ival": 2470,
      "Ġreview": 2471,
      "lt": 2472,
      "Ġpretty": 2473,
      "Ġphys": 2474,
      "epend": 2475,
      "ilities": 2476,
      "Ġversion": 2477,
      "Ġglobal": 2478,
      "ached": 2479,
      "Ġpersonal": 2480,
      "ĠDr": 2481,
      "ĠNot": 2482,
      "Ġconsum": 2483,
      "Ġenvironment": 2484,
      "Ġperiod": 2485,
      "Ġlonger": 2486,
      "ele": 2487,
      "Ġplayed": 2488,
      "Ġinstead": 2489,
      "Ġanim": 2490,
      "ES": 2491,
      "Ġsuff": 2492,
      "Ġ@": 2493,
      "ĠIntern": 2494,
      "Ġgen": 2495,
      "Ġsense": 2496,
      "Ġparent": 2497,
      "Ġ24": 2498,
      "uary": 2499,
      "lex": 2500,
      "nesday": 2501,
      "Ġled": 2502,
      "cil": 2503,
      "Ġearlier": 2504,
      "ĠÂ": 2505,
      "oid": 2506,
      "ĠOct": 2507,
      "Ġport": 2508,
      "Ġpain": 2509,
      "ursday": 2510,
      "Ġprice": 2511,
      "Ġtotal": 2512,
      "Ġcommon": 2513,
      "ĠMich": 2514,
      "ĠAfter": 2515,
      "Ġlaws": 2516,
      "bo": 2517,
      "fect": 2518,
      "eed": 2519,
      "ĠBar": 2520,
      "Ġconsider": 2521,
      "rypt": 2522,
      "Ġhigher": 2523,
      "AD": 2524,
      "aut": 2525,
      "Ġep": 2526,
      "16": 2527,
      "ests": 2528,
      "Ġregul": 2529,
      "Ġincrease": 2530,
      "ique": 2531,
      "Ġneeded": 2532,
      "ateg": 2533,
      "Ġaud": 2534,
      "Ġlo": 2535,
      "ĠMus": 2536,
      "Ġpred": 2537,
      "ris": 2538,
      "Ġaccept": 2539,
      "Ġwalk": 2540,
      "Ġheld": 2541,
      "Ġsen": 2542,
      "EN": 2543,
      "Ġdead": 2544,
      "Ġworkers": 2545,
      "iple": 2546,
      "ees": 2547,
      "Ġbecame": 2548,
      "lam": 2549,
      "fer": 2550,
      "Ġmusic": 2551,
      "Ġpoll": 2552,
      "istic": 2553,
      "yle": 2554,
      "angu": 2555,
      "ĠSept": 2556,
      "ĠWednesday": 2557,
      "Ġanti": 2558,
      "ĠCongress": 2559,
      "Ġrad": 2560,
      "Ġquestions": 2561,
      "Ġrespond": 2562,
      "asons": 2563,
      "Ġgoal": 2564,
      "Ġworks": 2565,
      "overed": 2566,
      "Ġeduc": 2567,
      "ĠMy": 2568,
      "ĠWill": 2569,
      "ript": 2570,
      "ourt": 2571,
      "Ġanyone": 2572,
      "key": 2573,
      "ĠUK": 2574,
      "Ġprivate": 2575,
      "ĠThursday": 2576,
      "ĠCount": 2577,
      "Ġden": 2578,
      "aker": 2579,
      "ĠClinton": 2580,
      "anger": 2581,
      "str": 2582,
      "hood": 2583,
      "Ġemer": 2584,
      "ĠAug": 2585,
      "Ġpie": 2586,
      "ĠGoogle": 2587,
      "ĠApril": 2588,
      "Al": 2589,
      "ĠEn": 2590,
      "lear": 2591,
      "Ġeasy": 2592,
      "Ġarrest": 2593,
      "isl": 2594,
      "ĠSyri": 2595,
      "okes": 2596,
      "Ġminutes": 2597,
      "Ġrate": 2598,
      "Ġfavor": 2599,
      "ham": 2600,
      "Ġways": 2601,
      "itiz": 2602,
      "Ġwrong": 2603,
      "OR": 2604,
      "Ġresponse": 2605,
      "Ġcomment": 2606,
      "Ġcirc": 2607,
      "Ġbar": 2608,
      "ĠHis": 2609,
      "ĠJune": 2610,
      "ĠSund": 2611,
      "hod": 2612,
      "Ġtit": 2613,
      "Ġpopular": 2614,
      "To": 2615,
      "Ġnecess": 2616,
      "14": 2617,
      "lege": 2618,
      "Ġpack": 2619,
      "ole": 2620,
      "ends": 2621,
      "cast": 2622,
      "Ġvol": 2623,
      "atives": 2624,
      "icro": 2625,
      "ĠPe": 2626,
      "ires": 2627,
      "hern": 2628,
      "Ġtrade": 2629,
      "ĠRussia": 2630,
      "Ġexecut": 2631,
      "ctor": 2632,
      "istrict": 2633,
      "based": 2634,
      "Ġansw": 2635,
      "Ġcurrently": 2636,
      "Ġnetwork": 2637,
      "Ġ)": 2638,
      "down": 2639,
      "Ġnearly": 2640,
      "Ġmag": 2641,
      "Ġcoll": 2642,
      "Ġreports": 2643,
      "Ġwind": 2644,
      "ĠMe": 2645,
      "Ġcode": 2646,
      "Ġfinancial": 2647,
      "Ġcreated": 2648,
      "aving": 2649,
      "Ġ(@": 2650,
      "urd": 2651,
      "ĠCalif": 2652,
      "18": 2653,
      "itution": 2654,
      "Ġdeli": 2655,
      "Ġmeeting": 2656,
      "ĠGerman": 2657,
      "ĠThese": 2658,
      "Ġinternational": 2659,
      "put": 2660,
      "Ġplatform": 2661,
      "Ġrespect": 2662,
      "Ġprim": 2663,
      "Ġoffer": 2664,
      "Ġobject": 2665,
      "ule": 2666,
      "Ġsurpr": 2667,
      "Ġrelationship": 2668,
      "Ġleave": 2669,
      "Ġadministration": 2670,
      "Ġur": 2671,
      "ĠSm": 2672,
      "Ġage": 2673,
      "Ġrev": 2674,
      "ĠJuly": 2675,
      "Ġvia": 2676,
      "ude": 2677,
      "Ġinside": 2678,
      "ĠRepublican": 2679,
      "hel": 2680,
      "Ġmodel": 2681,
      "bor": 2682,
      "Ġreceived": 2683,
      "Ġdirector": 2684,
      "Ġstore": 2685,
      "ills": 2686,
      "Ġhy": 2687,
      "oph": 2688,
      "Ġexpress": 2689,
      "ging": 2690,
      "Ġbuy": 2691,
      "Ġinvolved": 2692,
      "joy": 2693,
      "Ġimmedi": 2694,
      "ĠOff": 2695,
      "==": 2696,
      "ĠDonald": 2697,
      "Ġfans": 2698,
      "Ġcannot": 2699,
      "oint": 2700,
      "17": 2701,
      "Ġwords": 2702,
      "Ġnation": 2703,
      "lev": 2704,
      "Ġfunction": 2705,
      "Ġscient": 2706,
      "Ġproblems": 2707,
      "Ġplans": 2708,
      "ĠDo": 2709,
      "ĊĊĊĊĊ": 2710,
      "Ġ2020": 2711,
      "13": 2712,
      "Ġens": 2713,
      "rain": 2714,
      "Ġdel": 2715,
      "Ġ2013": 2716,
      "'ll": 2717,
      "Ġrequire": 2718,
      "Ġdig": 2719,
      "apan": 2720,
      "aterial": 2721,
      "aily": 2722,
      "Ġheart": 2723,
      "haps": 2724,
      "Ġworth": 2725,
      "ĠSunday": 2726,
      "At": 2727,
      "alt": 2728,
      "Ġaffect": 2729,
      "Ġroad": 2730,
      "Ġlatest": 2731,
      "Ġexact": 2732,
      "Ġchance": 2733,
      "iction": 2734,
      "Ġtou": 2735,
      "ĠCor": 2736,
      "ises": 2737,
      "ornia": 2738,
      "Ġphone": 2739,
      "Ġinvestigation": 2740,
      "bit": 2741,
      "Ġshot": 2742,
      "Ġsituation": 2743,
      "Ġwebsite": 2744,
      "ĠIran": 2745,
      "ety": 2746,
      "Ġtal": 2747,
      "ael": 2748,
      "Ġcapital": 2749,
      "Ġbase": 2750,
      "Ġtool": 2751,
      "Ġmid": 2752,
      "cies": 2753,
      "Ġforce": 2754,
      "Ġforeign": 2755,
      "agement": 2756,
      "Ġtravel": 2757,
      "ĠRed": 2758,
      "eter": 2759,
      "izing": 2760,
      "Ġliving": 2761,
      "Ġlives": 2762,
      "Ġtype": 2763,
      "Ġparticip": 2764,
      "ĠWhile": 2765,
      "Ġworked": 2766,
      "urch": 2767,
      "Ġhtt": 2768,
      "ites": 2769,
      "ky": 2770,
      "ips": 2771,
      "lled": 2772,
      "ĠFeb": 2773,
      "?âĢĿ": 2774,
      "ech": 2775,
      "oved": 2776,
      "Ġbecom": 2777,
      "ĠHar": 2778,
      "Ġkilled": 2779,
      "ĠJanuary": 2780,
      "Ġterms": 2781,
      "Ġdiv": 2782,
      "ani": 2783,
      "Ġtakes": 2784,
      "rought": 2785,
      "ĠBy": 2786,
      "Ġaverage": 2787,
      "Ġability": 2788,
      "Ġsoft": 2789,
      "ID": 2790,
      "Ġcollect": 2791,
      "ĠAng": 2792,
      "Ġteams": 2793,
      "Ġbroad": 2794,
      "Ġsold": 2795,
      "Ġemail": 2796,
      "Ġvictim": 2797,
      "Ġimprove": 2798,
      "aur": 2799,
      "IC": 2800,
      "25": 2801,
      "Ġrelig": 2802,
      "ĠAct": 2803,
      "ĠCourt": 2804,
      "Ġcell": 2805,
      "Ġhappened": 2806,
      "Ġlog": 2807,
      "ĠAmericans": 2808,
      "load": 2809,
      "Ġareas": 2810,
      "ples": 2811,
      "Ġ2012": 2812,
      "ĠNe": 2813,
      "Ġmember": 2814,
      "ĠSan": 2815,
      "oud": 2816,
      "Ġlack": 2817,
      "80": 2818,
      "ĠEm": 2819,
      "osition": 2820,
      "Ġsource": 2821,
      "Ġcomput": 2822,
      "orters": 2823,
      "Ġpublished": 2824,
      "akers": 2825,
      "Ġterror": 2826,
      "ĠBre": 2827,
      "Ġgirl": 2828,
      "Tr": 2829,
      "ĠKore": 2830,
      "Ġoil": 2831,
      "Ġclub": 2832,
      "Ġapproach": 2833,
      "ĠIndia": 2834,
      "Ġpage": 2835,
      "ĠCalifornia": 2836,
      "atory": 2837,
      "Ġ40": 2838,
      "oor": 2839,
      "ray": 2840,
      "Ġassoci": 2841,
      "cement": 2842,
      "Ġcivil": 2843,
      "icated": 2844,
      "Ġ{": 2845,
      "ĠNow": 2846,
      "Ġdefin": 2847,
      "Ġcal": 2848,
      "Ġreveal": 2849,
      "usion": 2850,
      "Ġperformance": 2851,
      "idents": 2852,
      "Ġbank": 2853,
      "ctions": 2854,
      "ĠTV": 2855,
      "ructure": 2856,
      "body": 2857,
      "AL": 2858,
      "atural": 2859,
      "dd": 2860,
      "ops": 2861,
      "ĠEuropean": 2862,
      "Ġleader": 2863,
      "Ġeconomy": 2864,
      "rel": 2865,
      "Ġinflu": 2866,
      "Ġmother": 2867,
      "Ġhuge": 2868,
      "Ġclimate": 2869,
      "Ġevents": 2870,
      "Ġveh": 2871,
      "Ġestabl": 2872,
      "One": 2873,
      "Ġgoes": 2874,
      "ĠPal": 2875,
      "Ġet": 2876,
      "Ġdecided": 2877,
      "ĠAg": 2878,
      "ĠPer": 2879,
      "Sh": 2880,
      "ovember": 2881,
      "Ġvisit": 2882,
      "omb": 2883,
      "Ġmis": 2884,
      "ĠCanada": 2885,
      "Ġthous": 2886,
      "Ġcouple": 2887,
      "Ġdemand": 2888,
      "Ġcontact": 2889,
      "aturday": 2890,
      "Ġrecogn": 2891,
      "ĠGl": 2892,
      "Ġmedical": 2893,
      "Ġord": 2894,
      "Ġ+": 2895,
      "igence": 2896,
      "While": 2897,
      "Ġloss": 2898,
      "Ġboard": 2899,
      "fully": 2900,
      "chie": 2901,
      "Ġquickly": 2902,
      "Ġregard": 2903,
      "Ġwhose": 2904,
      "Ġwants": 2905,
      "Ġlangu": 2906,
      "ĠRussian": 2907,
      "ruction": 2908,
      "ĠJapan": 2909,
      "Ġtwe": 2910,
      "Ġenjoy": 2911,
      "ights": 2912,
      "Ġobs": 2913,
      "ought": 2914,
      "Ġcareer": 2915,
      "Ġill": 2916,
      "gest": 2917,
      "ological": 2918,
      "ĠDemocratic": 2919,
      "ino": 2920,
      "unt": 2921,
      "Ġsort": 2922,
      "na": 2923,
      "Ġmatch": 2924,
      "Ġmorning": 2925,
      "ĠGod": 2926,
      "Ġoriginal": 2927,
      "ĠSome": 2928,
      "Ġimage": 2929,
      "Ġrace": 2930,
      "Ġround": 2931,
      "With": 2932,
      "ĠBro": 2933,
      "ĠAfric": 2934,
      "Ġimmigr": 2935,
      "Ġnorm": 2936,
      "Ġlegisl": 2937,
      "Ġgave": 2938,
      "Ġreach": 2939,
      "inese": 2940,
      "Ġhot": 2941,
      "ĠCounty": 2942,
      "Ġmaterial": 2943,
      "Ġsqu": 2944,
      "ED": 2945,
      "Ġweap": 2946,
      "ĠDemocrats": 2947,
      "Ġgrowth": 2948,
      "ĠEl": 2949,
      "Ġfelt": 2950,
      "Ġsubject": 2951,
      "mon": 2952,
      "ospital": 2953,
      "che": 2954,
      "ĠSeptember": 2955,
      "hold": 2956,
      "Ġrac": 2957,
      "ĠSch": 2958,
      "IT": 2959,
      "ondon": 2960,
      "Ġcy": 2961,
      "Ġsafe": 2962,
      "ening": 2963,
      "ened": 2964,
      "Ph": 2965,
      "Ġpull": 2966,
      "Ġturned": 2967,
      "Ġallowed": 2968,
      "ĠNovember": 2969,
      "Ġprogress": 2970,
      "OS": 2971,
      "AC": 2972,
      "Ġsimple": 2973,
      "Ġ21": 2974,
      "uses": 2975,
      "ume": 2976,
      "ĠAugust": 2977,
      "Ġhon": 2978,
      "Ġnumbers": 2979,
      "ned": 2980,
      "Ġsecret": 2981,
      "Ġheard": 2982,
      "She": 2983,
      "60": 2984,
      "Ġproduction": 2985,
      "bl": 2986,
      "Ġmethod": 2987,
      "Ġprep": 2988,
      "Ġperfect": 2989,
      "ences": 2990,
      "ares": 2991,
      "Ġspent": 2992,
      "Ġneigh": 2993,
      "Ġproducts": 2994,
      "Ġbuilt": 2995,
      "Ġboy": 2996,
      "Ġfem": 2997,
      "Ġintrodu": 2998,
      "org": 2999,
      "Ġwide": 3000,
      "ĠPat": 3001,
      "Ġstrugg": 3002,
      "Ġgets": 3003,
      "come": 3004,
      "Ġprevious": 3005,
      "Ġcover": 3006,
      "oto": 3007,
      "Ġsepar": 3008,
      "ĠDavid": 3009,
      "Ġseek": 3010,
      "ĠSaturday": 3011,
      "Ġlink": 3012,
      "Ġlower": 3013,
      "Ġpers": 3014,
      "Ġfeatures": 3015,
      "Ġlooks": 3016,
      "ĠNet": 3017,
      "Ġdro": 3018,
      "Ġste": 3019,
      "ĠOctober": 3020,
      "Ġfear": 3021,
      "Ġhands": 3022,
      "Ġrepe": 3023,
      "cember": 3024,
      "Ġcitiz": 3025,
      "____": 3026,
      "Ġbehav": 3027,
      "US": 3028,
      "avy": 3029,
      "ession": 3030,
      "Ġprior": 3031,
      "apt": 3032,
      "oring": 3033,
      "Ġess": 3034,
      "ishing": 3035,
      "ese": 3036,
      "Ġ22": 3037,
      "Ġspokes": 3038,
      "ĠSenate": 3039,
      "raz": 3040,
      "icles": 3041,
      "ceed": 3042,
      "yond": 3043,
      "Ġcause": 3044,
      "Ġengine": 3045,
      "Ġcoach": 3046,
      "Ġbrought": 3047,
      "Ġsearch": 3048,
      "ĠMark": 3049,
      "ĠChinese": 3050,
      "urning": 3051,
      "Ġconduct": 3052,
      "Ġfell": 3053,
      "ularly": 3054,
      "Ġincluded": 3055,
      "ĠQu": 3056,
      "Ġtried": 3057,
      "Ġattention": 3058,
      "Ġtown": 3059,
      "undred": 3060,
      "alled": 3061,
      "Ġmovement": 3062,
      "Ġtraining": 3063,
      "Ġbi": 3064,
      "utions": 3065,
      "ground": 3066,
      "Ġ<": 3067,
      "ĠTH": 3068,
      "Ġrules": 3069,
      "After": 3070,
      "Ġsexual": 3071,
      "Ġresour": 3072,
      "ĠLondon": 3073,
      "Ġfre": 3074,
      "ibly": 3075,
      "face": 3076,
      "inks": 3077,
      "Ġknew": 3078,
      "Ġmention": 3079,
      "ico": 3080,
      "Ġjournal": 3081,
      "uk": 3082,
      "Ġopportunity": 3083,
      "ĠBritish": 3084,
      "rect": 3085,
      "Ġvarious": 3086,
      "set": 3087,
      "Ġfast": 3088,
      "ĠLab": 3089,
      "ĠChe": 3090,
      "Ġfather": 3091,
      "Ġprevent": 3092,
      "Ġdemon": 3093,
      "field": 3094,
      "arily": 3095,
      "Re": 3096,
      "Ġachie": 3097,
      "uments": 3098,
      "iment": 3099,
      "ĠHill": 3100,
      "Ġfair": 3101,
      "ĠIslam": 3102,
      "ĠDecember": 3103,
      "ĠAnt": 3104,
      "Ġincreasing": 3105,
      "ification": 3106,
      "ĠParty": 3107,
      "Ġvo": 3108,
      "Ġsize": 3109,
      "Ġbud": 3110,
      "rast": 3111,
      "Ġuser": 3112,
      "ĠBlack": 3113,
      "Ġaddition": 3114,
      "istan": 3115,
      "ĠPark": 3116,
      "Ġdespite": 3117,
      "ĠGet": 3118,
      "Ġtalking": 3119,
      "ledge": 3120,
      "Ġlevels": 3121,
      "Ġparticular": 3122,
      "Ġdetails": 3123,
      "estern": 3124,
      "Ġremain": 3125,
      "Ġ23": 3126,
      "val": 3127,
      "Ġquarter": 3128,
      "Ġparents": 3129,
      "Ġclaims": 3130,
      "Ġcard": 3131,
      "Ġviolence": 3132,
      "Ġexperien": 3133,
      "Ġcritic": 3134,
      "ication": 3135,
      "ĠMinister": 3136,
      "Ġcris": 3137,
      "Ġslow": 3138,
      "ruary": 3139,
      "pir": 3140,
      "Ġmultiple": 3141,
      "Ġforces": 3142,
      "Ġchief": 3143,
      "ha": 3144,
      "ĠSand": 3145,
      "uit": 3146,
      "Ġpopulation": 3147,
      "ze": 3148,
      "cle": 3149,
      "Ġindepend": 3150,
      "ĠSw": 3151,
      "bed": 3152,
      "Ġalleged": 3153,
      "entially": 3154,
      "Ġinn": 3155,
      "ĠTex": 3156,
      "Ġcrim": 3157,
      "Ġseven": 3158,
      "Ġhear": 3159,
      "ĠCenter": 3160,
      "Ġbiggest": 3161,
      "imately": 3162,
      "Ġsystems": 3163,
      "iant": 3164,
      "ysis": 3165,
      "BI": 3166,
      "Ġresearc": 3167,
      "Ġexam": 3168,
      "Ġspeed": 3169,
      "ero": 3170,
      "ma": 3171,
      "uf": 3172,
      "Ġextreme": 3173,
      "ecause": 3174,
      "Ġdoll": 3175,
      "ĠTimes": 3176,
      "eth": 3177,
      "Ġserious": 3178,
      "room": 3179,
      "Ġquality": 3180,
      "sequ": 3181,
      "Ġmessage": 3182,
      "Ġwond": 3183,
      "Ġpaper": 3184,
      "Ġassist": 3185,
      "Ġrange": 3186,
      "Ġhor": 3187,
      "Ġrequest": 3188,
      "Ġvoters": 3189,
      "40": 3190,
      "Ġsn": 3191,
      "ĠâĢ¦": 3192,
      "Ġconvers": 3193,
      "Ġmach": 3194,
      "Ġconserv": 3195,
      "Ġsurve": 3196,
      "omp": 3197,
      "Ġdocument": 3198,
      "Ġpaid": 3199,
      "ille": 3200,
      "aries": 3201,
      "Ġmajority": 3202,
      "iam": 3203,
      "ĠPaul": 3204,
      "oo": 3205,
      "ĠPost": 3206,
      "Ġsens": 3207,
      "ĠPar": 3208,
      "ken": 3209,
      "Ġconfir": 3210,
      "Ġleading": 3211,
      "Ġcross": 3212,
      "Ġpurch": 3213,
      "Ġefforts": 3214,
      "Ġjobs": 3215,
      "Ġmob": 3216,
      "Ġarriv": 3217,
      "Ġliber": 3218,
      "Ġregion": 3219,
      "ĠStreet": 3220,
      "Ġlaunch": 3221,
      "idered": 3222,
      "Ġeight": 3223,
      "yl": 3224,
      "wo": 3225,
      "Ġchalleng": 3226,
      "Ġund": 3227,
      "Ġrequired": 3228,
      "Ġremains": 3229,
      "ĠInt": 3230,
      "Ġgrowing": 3231,
      "Ġextra": 3232,
      "ĠFebruary": 3233,
      "idge": 3234,
      "asc": 3235,
      "aly": 3236,
      "ope": 3237,
      "Ġreb": 3238,
      "Ġ2011": 3239,
      "erve": 3240,
      "de": 3241,
      "Ġimplement": 3242,
      "ĠMore": 3243,
      "Ġsafety": 3244,
      "vent": 3245,
      "ges": 3246,
      "Ġscreen": 3247,
      "ĠTur": 3248,
      "Ġtext": 3249,
      "Ġcrypt": 3250,
      "Ġcele": 3251,
      "rim": 3252,
      "isions": 3253,
      "ari": 3254,
      "Ġhous": 3255,
      "uing": 3256,
      "ĠEU": 3257,
      "Ġ}": 3258,
      "Ġahead": 3259,
      "enge": 3260,
      "Ġshowed": 3261,
      "Ġdraw": 3262,
      "Ġstarting": 3263,
      "Ġdefense": 3264,
      "eared": 3265,
      "Ġaren": 3266,
      "Ġstar": 3267,
      "ension": 3268,
      "eff": 3269,
      "ida": 3270,
      "Ġcarry": 3271,
      "Ġexch": 3272,
      "anced": 3273,
      "ĠIS": 3274,
      "Ġparticularly": 3275,
      "lying": 3276,
      "EO": 3277,
      "Ġgas": 3278,
      "Ġmaintain": 3279,
      "Ġclos": 3280,
      "Ġspeak": 3281,
      "FL": 3282,
      "Ġment": 3283,
      "ĠCoun": 3284,
      "Ġcrisis": 3285,
      "Ġofficers": 3286,
      "Ġcompletely": 3287,
      "erc": 3288,
      "ibr": 3289,
      "Ġrecomm": 3290,
      "Ġcomments": 3291,
      "ĠSpe": 3292,
      "Ġdoub": 3293,
      "70": 3294,
      "Ġcontinued": 3295,
      "Ġson": 3296,
      "Ġattacks": 3297,
      "Ġhundred": 3298,
      "Ġanswer": 3299,
      "Ġconc": 3300,
      "Ġpen": 3301,
      "\".": 3302,
      "Ġprovided": 3303,
      "Ġcosts": 3304,
      "Ġready": 3305,
      "Ġconsidered": 3306,
      "Ġult": 3307,
      "Ġdanger": 3308,
      "Ġbox": 3309,
      "Ġstories": 3310,
      "Ġspread": 3311,
      "ĠAir": 3312,
      "Ġspot": 3313,
      "Ġgiving": 3314,
      "itch": 3315,
      "Ġban": 3316,
      "Ġexactly": 3317,
      "reedom": 3318,
      "Ġrout": 3319,
      "tr": 3320,
      "Ġagency": 3321,
      "orney": 3322,
      "Ġobv": 3323,
      "ilies": 3324,
      "Ġincludes": 3325,
      "ĠKe": 3326,
      "het": 3327,
      "ĠMor": 3328,
      "Ġsurv": 3329,
      "oper": 3330,
      "ĠIndian": 3331,
      "Ġmill": 3332,
      "Ġdied": 3333,
      "ram": 3334,
      "ĠCons": 3335,
      "berg": 3336,
      "Ġones": 3337,
      "99": 3338,
      "Ġearn": 3339,
      "Ġadditional": 3340,
      "pre": 3341,
      "Ġsummer": 3342,
      "ett": 3343,
      "ĠKing": 3344,
      "ĠCont": 3345,
      "Ġpan": 3346,
      "ĠServ": 3347,
      "Ġintell": 3348,
      "All": 3349,
      "Ġpath": 3350,
      "Ġprison": 3351,
      "Ġthousands": 3352,
      "Ġitem": 3353,
      "illed": 3354,
      "Ġsociety": 3355,
      "aph": 3356,
      "fort": 3357,
      "Ġcertainly": 3358,
      "ĠGener": 3359,
      "AM": 3360,
      "Ġinteresting": 3361,
      "Ġil": 3362,
      "Ġpositive": 3363,
      "ĠCO": 3364,
      "Ġlay": 3365,
      "Ġupon": 3366,
      "mitted": 3367,
      "Ġclean": 3368,
      "ĠLeague": 3369,
      "aud": 3370,
      "Ġmovie": 3371,
      "Ġpractice": 3372,
      "Ġtowards": 3373,
      "ube": 3374,
      "Ġlanguage": 3375,
      "ux": 3376,
      "mp": 3377,
      "Ġfit": 3378,
      "Ġoption": 3379,
      "Ġcalls": 3380,
      "Ġchanged": 3381,
      "Ġimmediately": 3382,
      "ara": 3383,
      "ĠEast": 3384,
      "sych": 3385,
      "Ġfinally": 3386,
      "astic": 3387,
      "Ġnatural": 3388,
      "ously": 3389,
      "uclear": 3390,
      "ĠMon": 3391,
      "Ġaw": 3392,
      "using": 3393,
      "Ġconditions": 3394,
      "ĠDes": 3395,
      "inary": 3396,
      "Ġparts": 3397,
      "Ġdirectly": 3398,
      ");": 3399,
      "Ġhistor": 3400,
      "Ġunf": 3401,
      "No": 3402,
      "ĠMuslim": 3403,
      "icks": 3404,
      "Ġdescribed": 3405,
      "Ġincreased": 3406,
      "Ġcamer": 3407,
      "Ġaim": 3408,
      "ĠJew": 3409,
      "ET": 3410,
      "ĠMichael": 3411,
      "Ġlooked": 3412,
      "hest": 3413,
      "ĠTexas": 3414,
      "inally": 3415,
      "rowd": 3416,
      "ĠApple": 3417,
      "Ġpressure": 3418,
      "arning": 3419,
      "Ġeducation": 3420,
      "OT": 3421,
      "Ġsong": 3422,
      "Ġcontinues": 3423,
      "Ġkids": 3424,
      "itcoin": 3425,
      "Ġfix": 3426,
      "icted": 3427,
      "Ġborder": 3428,
      "Ġtable": 3429,
      "ications": 3430,
      "aught": 3431,
      "Ġpurp": 3432,
      "aves": 3433,
      "Ġmiddle": 3434,
      "Ġbeyond": 3435,
      "Ġcustomers": 3436,
      "Ġguy": 3437,
      "Ġdate": 3438,
      "Ġstudent": 3439,
      "Ġsell": 3440,
      "Ġ2010": 3441,
      "ĠMcC": 3442,
      "Ġthroughout": 3443,
      "Ġtrust": 3444,
      "itute": 3445,
      "ĠSoc": 3446,
      "Ġblood": 3447,
      "Ġletter": 3448,
      "ny": 3449,
      "ĠRepublicans": 3450,
      "raq": 3451,
      "Ġ26": 3452,
      "ĠEven": 3453,
      "anch": 3454,
      "unk": 3455,
      "Ġterm": 3456,
      "Ġsmart": 3457,
      "sp": 3458,
      "new": 3459,
      "Ġthinking": 3460,
      "Ġdog": 3461,
      "Ġmodern": 3462,
      "Ġ60": 3463,
      "ables": 3464,
      "Ġscene": 3465,
      "Ġconference": 3466,
      "Ġwouldn": 3467,
      "Ġreality": 3468,
      "Ġalone": 3469,
      "hib": 3470,
      "Ġfootball": 3471,
      "Ġwritten": 3472,
      "Ġdamage": 3473,
      "Ġfile": 3474,
      "reng": 3475,
      "Ġstuff": 3476,
      "Ġ28": 3477,
      "aches": 3478,
      "ban": 3479,
      "rupt": 3480,
      "airs": 3481,
      "Ġofficer": 3482,
      "ĠAustralia": 3483,
      "Ġdise": 3484,
      "Ġstage": 3485,
      "ĠJames": 3486,
      "Ġexcept": 3487,
      "chain": 3488,
      "Ġspeech": 3489,
      "Ġenfor": 3490,
      "Now": 3491,
      "Ġfamilies": 3492,
      "Ġtour": 3493,
      "orge": 3494,
      "Ġut": 3495,
      "Ġdecl": 3496,
      "Ġgone": 3497,
      "Ġtouch": 3498,
      "Ġ27": 3499,
      "zz": 3500,
      "oses": 3501,
      "Ġproperty": 3502,
      "Ġchoice": 3503,
      "22": 3504,
      "arian": 3505,
      "Ġfailed": 3506,
      "Ġilleg": 3507,
      "Ġsuspect": 3508,
      "Ġscience": 3509,
      "pper": 3510,
      "ING": 3511,
      "Ġfirm": 3512,
      "iles": 3513,
      "Ġprojects": 3514,
      "ĠAngel": 3515,
      "rief": 3516,
      "Ġhelped": 3517,
      "Ġsometimes": 3518,
      "Ġcat": 3519,
      "Ġselect": 3520,
      "Ġminister": 3521,
      "iers": 3522,
      "rench": 3523,
      "Ġcenter": 3524,
      "Ġexecutive": 3525,
      "AP": 3526,
      "imum": 3527,
      "ĠChar": 3528,
      "Ġculture": 3529,
      "Ġpoor": 3530,
      "Ġhospital": 3531,
      "olute": 3532,
      "Ġcomplex": 3533,
      "Ġautom": 3534,
      "ĠFirst": 3535,
      "Ġwriting": 3536,
      "Ġreceive": 3537,
      "Ġmoving": 3538,
      "Ġcouldn": 3539,
      "Ġsle": 3540,
      "200": 3541,
      "Ġsoftware": 3542,
      "inated": 3543,
      "Ġsche": 3544,
      "omen": 3545,
      "Don": 3546,
      "According": 3547,
      "Ġencour": 3548,
      "Ġcopy": 3549,
      "Ġpark": 3550,
      "Ġsenior": 3551,
      "Ġdesigned": 3552,
      "Ġdrive": 3553,
      "Ġcitizens": 3554,
      "Ġcelebr": 3555,
      "ĠBill": 3556,
      "Ġanaly": 3557,
      "âĢĿ,": 3558,
      "Ġorganization": 3559,
      "Ġ198": 3560,
      "icient": 3561,
      "Ġcontribut": 3562,
      "Ġprec": 3563,
      "ĠIraq": 3564,
      "Ġswe": 3565,
      "ĠGreen": 3566,
      "Ġconsist": 3567,
      "oul": 3568,
      "Ġremember": 3569,
      "Ġsusp": 3570,
      "ĠAssoci": 3571,
      "Ġpatients": 3572,
      "oman": 3573,
      "Ġtoward": 3574,
      "urt": 3575,
      "ĠSer": 3576,
      "ivity": 3577,
      "ĠJack": 3578,
      "Ġopin": 3579,
      "Ġcounter": 3580,
      "Ġwife": 3581,
      "ampions": 3582,
      "Ġcandidate": 3583,
      "ford": 3584,
      "Ġhappy": 3585,
      "Ġwall": 3586,
      "rency": 3587,
      "ĠHealth": 3588,
      "Ġpreviously": 3589,
      "Ġnamed": 3590,
      "Ġcompared": 3591,
      "Ġperhaps": 3592,
      "aughter": 3593,
      "ĠBo": 3594,
      "Ġreasons": 3595,
      "Ġoccur": 3596,
      "Ġlargest": 3597,
      "Ġdecades": 3598,
      "ĠAP": 3599,
      "ston": 3600,
      "Ġdisapp": 3601,
      "Ġconfirmed": 3602,
      "ĠDay": 3603,
      "Ġpassed": 3604,
      "ĠMex": 3605,
      "secut": 3606,
      "Ġensure": 3607,
      "ĠSuper": 3608,
      "Ġallows": 3609,
      "ĠPlay": 3610,
      "Ġaware": 3611,
      "Ġcorpor": 3612,
      "ĠPolice": 3613,
      "adem": 3614,
      "Ġfeature": 3615,
      "wise": 3616,
      "Ġleague": 3617,
      "Ġrob": 3618,
      "Ġfigure": 3619,
      "just": 3620,
      "Ġpolitics": 3621,
      "venue": 3622,
      "Ġpiece": 3623,
      "Ġcredit": 3624,
      "Ġpus": 3625,
      "Ġâ": 3626,
      "Ġguys": 3627,
      "ĠVal": 3628,
      "Ġpresidential": 3629,
      "OP": 3630,
      "Ġdemonstr": 3631,
      "Ġver": 3632,
      "Ġeffects": 3633,
      "ufact": 3634,
      "aint": 3635,
      "Ġstandard": 3636,
      "wood": 3637,
      "riving": 3638,
      "Ġresearchers": 3639,
      "Ġepis": 3640,
      "Ġpowerful": 3641,
      "Ġtreatment": 3642,
      "uty": 3643,
      "Ġschools": 3644,
      "EC": 3645,
      "ĠDis": 3646,
      "term": 3647,
      "Ġappears": 3648,
      "ĠHere": 3649,
      "Ġmeaning": 3650,
      "Ġdebate": 3651,
      "ĊĊĊĊ": 3652,
      "orks": 3653,
      "atever": 3654,
      "Ġnecessary": 3655,
      "Ġscore": 3656,
      "urg": 3657,
      "nces": 3658,
      "Ġwrite": 3659,
      "ago": 3660,
      "Ġoverall": 3661,
      "Ġactions": 3662,
      "Ġcast": 3663,
      "24": 3664,
      "Ġemployees": 3665,
      "Ġlimited": 3666,
      "Ġmaybe": 3667,
      "Ġimag": 3668,
      "ression": 3669,
      "Ġcentral": 3670,
      "agon": 3671,
      "Ġsubst": 3672,
      "Ġdisp": 3673,
      "oti": 3674,
      "ller": 3675,
      "'d": 3676,
      "Ġestim": 3677,
      "Ġfan": 3678,
      "rol": 3679,
      "ĠSyria": 3680,
      "Ġdevice": 3681,
      "Ġbal": 3682,
      "Ġoptions": 3683,
      "Ġauthorities": 3684,
      "Ġunique": 3685,
      "Ġcriminal": 3686,
      "Ġnom": 3687,
      "ĠRober": 3688,
      "Ġbenefits": 3689,
      "Ġsales": 3690,
      "fl": 3691,
      "ĠHer": 3692,
      "Ġten": 3693,
      "Ġlaun": 3694,
      "Ġshut": 3695,
      "Ġmoved": 3696,
      "Ġincident": 3697,
      "Ġresources": 3698,
      "Ġmeant": 3699,
      "Ġforced": 3700,
      "Be": 3701,
      "Ġdetail": 3702,
      "irus": 3703,
      "Ġconcerns": 3704,
      "encies": 3705,
      "Ġsat": 3706,
      "Ġavoid": 3707,
      "irth": 3708,
      "Ġbattle": 3709,
      "rows": 3710,
      "more": 3711,
      "Ġbrain": 3712,
      "Ġadding": 3713,
      "Ġcrowd": 3714,
      "Ġchallenge": 3715,
      "Ġarch": 3716,
      "Ġblog": 3717,
      "Ġanalysis": 3718,
      "Pro": 3719,
      "Ġdark": 3720,
      "Ġalthough": 3721,
      "Ġlif": 3722,
      "Ġeasily": 3723,
      "Ġconcept": 3724,
      "Ġsil": 3725,
      "Ġrefer": 3726,
      "Ġfeed": 3727,
      "wide": 3728,
      "Ġbeginning": 3729,
      "Ġusually": 3730,
      "Im": 3731,
      "Ġbudget": 3732,
      "Ġrelated": 3733,
      "Ġstreng": 3734,
      "ĠSim": 3735,
      "Ġyes": 3736,
      "Ġgives": 3737,
      "Ġrelative": 3738,
      "Ġspending": 3739,
      "Ġnature": 3740,
      "Ġindividuals": 3741,
      "aming": 3742,
      "Ġcrime": 3743,
      "Ġesc": 3744,
      "resh": 3745,
      "Ġstra": 3746,
      "Ġtro": 3747,
      "Ġnote": 3748,
      "ustr": 3749,
      "Ġdigital": 3750,
      "Ġtweet": 3751,
      "ĠThen": 3752,
      "ocked": 3753,
      "Ġbeaut": 3754,
      "iring": 3755,
      "orter": 3756,
      "Ġyourself": 3757,
      "My": 3758,
      "Ġign": 3759,
      "ategy": 3760,
      "while": 3761,
      "ĠStar": 3762,
      "Ġdifference": 3763,
      "part": 3764,
      "Ġnoted": 3765,
      "box": 3766,
      "Ġcollege": 3767,
      "Ġnuclear": 3768,
      "Ġmyself": 3769,
      "Ġtitle": 3770,
      "ĠTor": 3771,
      "Ġexpand": 3772,
      "itely": 3773,
      "mission": 3774,
      "Ġrock": 3775,
      "itness": 3776,
      "ĠGovern": 3777,
      "Ġfully": 3778,
      "Ġtraff": 3779,
      "Ġsigned": 3780,
      "chan": 3781,
      "Ġhttps": 3782,
      "Ġcharge": 3783,
      "azon": 3784,
      "sey": 3785,
      "Ġsal": 3786,
      "mar": 3787,
      "Ġ29": 3788,
      "Ġcharges": 3789,
      "roy": 3790,
      "Is": 3791,
      "ĠBitcoin": 3792,
      "ĠFlor": 3793,
      ".âĢĻ": 3794,
      "Ġintegr": 3795,
      "Ġintelligence": 3796,
      "Ġphysical": 3797,
      "Ġfunding": 3798,
      "bon": 3799,
      "Ġfollowed": 3800,
      "ĠBen": 3801,
      "Ġweb": 3802,
      "Ġlic": 3803,
      "yan": 3804,
      "enty": 3805,
      "Ġdeg": 3806,
      "Ġgoals": 3807,
      "Ġdisplay": 3808,
      "roid": 3809,
      "ĠRich": 3810,
      "Ġcalling": 3811,
      "band": 3812,
      "ĠInternational": 3813,
      "ean": 3814,
      "Ġ...": 3815,
      "Ġrise": 3816,
      "Ġpolicies": 3817,
      "ĠMart": 3818,
      "Ġclaimed": 3819,
      "ĠÂ£": 3820,
      "Ġincome": 3821,
      "Ġshooting": 3822,
      "ressed": 3823,
      "ĠUnion": 3824,
      "ĠSci": 3825,
      "Ġmix": 3826,
      "inn": 3827,
      "Ġlawy": 3828,
      "Ġrates": 3829,
      "Ġbott": 3830,
      "Ġshown": 3831,
      "htt": 3832,
      "iders": 3833,
      "Ġprem": 3834,
      "osh": 3835,
      "Ġagreement": 3836,
      "Ġdistrict": 3837,
      "oday": 3838,
      "Ġrap": 3839,
      "arliament": 3840,
      "Ġresidents": 3841,
      "urance": 3842,
      "Ġrestr": 3843,
      "istry": 3844,
      "Ġdraft": 3845,
      "However": 3846,
      "ĠJer": 3847,
      "lish": 3848,
      "gency": 3849,
      "--------": 3850,
      "ĠCap": 3851,
      "Ġprimary": 3852,
      "Ġhighly": 3853,
      "Ġowners": 3854,
      "Ġmanager": 3855,
      "ĠSchool": 3856,
      "Ġsend": 3857,
      "ander": 3858,
      "Un": 3859,
      "la": 3860,
      "ĠOf": 3861,
      "mittee": 3862,
      "ĠCouncil": 3863,
      "Ġadvant": 3864,
      "ĠGeneral": 3865,
      "onents": 3866,
      "rs": 3867,
      "text": 3868,
      "Ġappeared": 3869,
      "board": 3870,
      "Ġreached": 3871,
      "Ġsave": 3872,
      "Ġstream": 3873,
      "ocks": 3874,
      "net": 3875,
      "Ġvac": 3876,
      "Ġeventually": 3877,
      "Ġweekend": 3878,
      "ste": 3879,
      "Ġsto": 3880,
      "ĠAlex": 3881,
      "Ġmanufact": 3882,
      "Ġpartners": 3883,
      "Ġcool": 3884,
      "Ġwarn": 3885,
      "Ġemb": 3886,
      "oes": 3887,
      "Ġ*": 3888,
      "Ġtruth": 3889,
      "ĠArab": 3890,
      "Some": 3891,
      "men": 3892,
      "miss": 3893,
      "Ġpromot": 3894,
      "Ġplaces": 3895,
      "ĠMac": 3896,
      "ifying": 3897,
      "Ġpeace": 3898,
      "vere": 3899,
      "Ġconflic": 3900,
      "ya": 3901,
      "Ġhar": 3902,
      "Ġapplication": 3903,
      "Ġaltern": 3904,
      "oom": 3905,
      "Ġrule": 3906,
      "Ġnice": 3907,
      "iance": 3908,
      "Ġsources": 3909,
      "ĠHigh": 3910,
      "ki": 3911,
      "onav": 3912,
      "Ġdoor": 3913,
      "Ġfavorite": 3914,
      "Ġuses": 3915,
      "Ġrevealed": 3916,
      "Ġgrad": 3917,
      "ĠAdd": 3918,
      "Ġorganiz": 3919,
      "ĠHam": 3920,
      "nown": 3921,
      "Ġcreating": 3922,
      "Ġcharacters": 3923,
      "ĠComp": 3924,
      "Ġaccused": 3925,
      "Ġattract": 3926,
      "bre": 3927,
      "23": 3928,
      "Ġprices": 3929,
      "spect": 3930,
      "ĠDef": 3931,
      "Ġideas": 3932,
      "Ġwild": 3933,
      "Ġcities": 3934,
      "ĠTom": 3935,
      "IL": 3936,
      "ĠFranc": 3937,
      "Ġarrested": 3938,
      "ĠEvery": 3939,
      "Ġstraight": 3940,
      "Ġemot": 3941,
      "onent": 3942,
      "Ġspend": 3943,
      "iny": 3944,
      "Ġmeasure": 3945,
      "Get": 3946,
      "Ġknowledge": 3947,
      "Ġstatus": 3948,
      "cul": 3949,
      "Ġdetermin": 3950,
      "IA": 3951,
      "antly": 3952,
      "Ġscen": 3953,
      "Ġdeveloped": 3954,
      "Ġinvestment": 3955,
      "Ġpush": 3956,
      "Ġsuccessful": 3957,
      "clus": 3958,
      "ĠFlorida": 3959,
      "Ġcorrect": 3960,
      "Ġmist": 3961,
      "Ġseeing": 3962,
      "EL": 3963,
      "ĠKorea": 3964,
      "Ġeyes": 3965,
      "Ġweapons": 3966,
      "onavirus": 3967,
      "Ġregular": 3968,
      "Ġang": 3969,
      "Ġraised": 3970,
      "Ġcomputer": 3971,
      "Ġbrand": 3972,
      "Ġclearly": 3973,
      "ĠEngland": 3974,
      "ota": 3975,
      "ĠFrench": 3976,
      "Ġactivity": 3977,
      "Ġcaused": 3978,
      "Ġassault": 3979,
      "Ġparties": 3980,
      "Ġminor": 3981,
      "Ġplant": 3982,
      "Ġindic": 3983,
      "Con": 3984,
      "Ġshared": 3985,
      "lick": 3986,
      "irt": 3987,
      "owers": 3988,
      "Ġwait": 3989,
      "Ġfrequ": 3990,
      "ĠBrown": 3991,
      "ĠOur": 3992,
      "Ġended": 3993,
      "Ġreflect": 3994,
      "ĠUk": 3995,
      "New": 3996,
      "....": 3997,
      "ville": 3998,
      "Ġpropos": 3999,
      "Ġstrategy": 4000,
      "lease": 4001,
      "ĠJustice": 4002,
      "Ġapparent": 4003,
      "alse": 4004,
      "Ġkept": 4005,
      "Ġimages": 4006,
      "etro": 4007,
      "ona": 4008,
      "ica": 4009,
      "Ġprovides": 4010,
      "Ġhaven": 4011,
      "Ġwilling": 4012,
      "Ġreading": 4013,
      "ĠDel": 4014,
      "Ġrank": 4015,
      "Ġnormal": 4016,
      "Ġcommunities": 4017,
      "ounds": 4018,
      "ĠSmith": 4019,
      "Ġx": 4020,
      "Ġnegoti": 4021,
      "Ġknows": 4022,
      "actions": 4023,
      "vest": 4024,
      "Ġenter": 4025,
      "ĠJohnson": 4026,
      "Ġlines": 4027,
      "Ġpsych": 4028,
      "Ġabsolute": 4029,
      "earch": 4030,
      "Ġleaving": 4031,
      "mark": 4032,
      "Ġreligious": 4033,
      "100": 4034,
      "Ġadop": 4035,
      "ĠRob": 4036,
      "Ġmassive": 4037,
      "ĠEarth": 4038,
      "ĠPeople": 4039,
      "ĠMod": 4040,
      "Ġprotest": 4041,
      "Ġgreater": 4042,
      "Ġbooks": 4043,
      "Ġchoose": 4044,
      "ĠRec": 4045,
      "icit": 4046,
      "Ġprin": 4047,
      "Ġlearning": 4048,
      "ĠCommittee": 4049,
      "Ġrare": 4050,
      "ĠLa": 4051,
      "Ġ2008": 4052,
      "Ġhappens": 4053,
      "acing": 4054,
      "Ġsolution": 4055,
      "ĠTrans": 4056,
      "Ġtrial": 4057,
      "Ġlarger": 4058,
      "Ġbrief": 4059,
      "Ġmanagement": 4060,
      "Ġprograms": 4061,
      "Ġbusinesses": 4062,
      "Ġdevices": 4063,
      "Ġcritical": 4064,
      "uman": 4065,
      "iced": 4066,
      "21": 4067,
      "Ġcolor": 4068,
      "uters": 4069,
      "Ġvirt": 4070,
      "lined": 4071,
      "que": 4072,
      "ĠImages": 4073,
      "abor": 4074,
      "Ġfine": 4075,
      "Ġlik": 4076,
      "ĠGermany": 4077,
      "Ġobserv": 4078,
      "Ġacqu": 4079,
      "arant": 4080,
      "coming": 4081,
      "pen": 4082,
      "ĠGold": 4083,
      "Ġbenefit": 4084,
      "Ġbeat": 4085,
      "ĠSecret": 4086,
      "Ġpun": 4087,
      "Ġfighting": 4088,
      "ĠSanders": 4089,
      "Ġoffered": 4090,
      "Ġbrother": 4091,
      "ĠLet": 4092,
      "Ġseemed": 4093,
      "Ġadult": 4094,
      "Ġtraditional": 4095,
      "Ġgreen": 4096,
      "ĠEnglish": 4097,
      "Ġcru": 4098,
      "ado": 4099,
      "Ġinstall": 4100,
      "ĠScott": 4101,
      "ĠFBI": 4102,
      "Ġdaily": 4103,
      "Ġasking": 4104,
      "icial": 4105,
      "500": 4106,
      "Ġoperations": 4107,
      "Ġjudge": 4108,
      "OM": 4109,
      "Ġgrand": 4110,
      "aby": 4111,
      "Ġjump": 4112,
      "Ġtesting": 4113,
      "ĠWind": 4114,
      "ĠFrom": 4115,
      "amb": 4116,
      "\",": 4117,
      "OU": 4118,
      "ĠBer": 4119,
      "Ġfreedom": 4120,
      "ĠOffice": 4121,
      "Ġfemale": 4122,
      "Ġoffers": 4123,
      "Ġposted": 4124,
      "ĠII": 4125,
      "iverse": 4126,
      "Sc": 4127,
      "Ġvoice": 4128,
      "azing": 4129,
      "These": 4130,
      "Ġpictures": 4131,
      "Ġqual": 4132,
      "inger": 4133,
      "Ġ197": 4134,
      "ading": 4135,
      "Ex": 4136,
      "Ġelectric": 4137,
      "Ġfa": 4138,
      "www": 4139,
      "ĠBel": 4140,
      "ĠCommission": 4141,
      "uild": 4142,
      "ĠBay": 4143,
      "Ġlimit": 4144,
      "dom": 4145,
      "Ġbasic": 4146,
      "Ġstudies": 4147,
      "EM": 4148,
      "Trump": 4149,
      "Ġadvoc": 4150,
      "Ġtick": 4151,
      "ictions": 4152,
      "Ġteac": 4153,
      "Ġshowing": 4154,
      "ĠReg": 4155,
      "Ġspir": 4156,
      "Ġreform": 4157,
      "uana": 4158,
      "iled": 4159,
      "Ġband": 4160,
      "Ġsupposed": 4161,
      "Here": 4162,
      "Ġcars": 4163,
      "Ġcommer": 4164,
      "ĠUkrain": 4165,
      "mine": 4166,
      "Ġrecords": 4167,
      "45": 4168,
      "Ġtrou": 4169,
      "Ġfeeling": 4170,
      "):": 4171,
      "Ġstation": 4172,
      "35": 4173,
      "Ġhearing": 4174,
      "Ġhighest": 4175,
      "Ġcandidates": 4176,
      "Ġexchange": 4177,
      "By": 4178,
      "Ġopposition": 4179,
      "witch": 4180,
      "Ġneighbor": 4181,
      "Ġfeet": 4182,
      "Ġ2009": 4183,
      "GB": 4184,
      "ĠStud": 4185,
      "ribution": 4186,
      "oles": 4187,
      "ocr": 4188,
      "Ġlose": 4189,
      "ags": 4190,
      "ST": 4191,
      "olic": 4192,
      "ties": 4193,
      "icians": 4194,
      "Ġpicture": 4195,
      "Ġmer": 4196,
      "ĠMal": 4197,
      "Ġeffective": 4198,
      "Ġmillions": 4199,
      "Ġexplained": 4200,
      "ĠLaw": 4201,
      "Ġimpl": 4202,
      "ĠChristian": 4203,
      "Ġunc": 4204,
      "ĠGeorge": 4205,
      "Ġsan": 4206,
      "ĠCup": 4207,
      "Ġopening": 4208,
      "Ġbehavior": 4209,
      "craft": 4210,
      "Ġdisease": 4211,
      "Ġlaunched": 4212,
      "gen": 4213,
      "Ġinternet": 4214,
      "Ġwat": 4215,
      "TC": 4216,
      "ĠArt": 4217,
      "icip": 4218,
      "Ġhundreds": 4219,
      "Ġlearned": 4220,
      "Ġeye": 4221,
      "Ġvalues": 4222,
      "going": 4223,
      "Mr": 4224,
      "Ġdefend": 4225,
      "Ġillegal": 4226,
      "ription": 4227,
      "cell": 4228,
      "estic": 4229,
      "Ġbeg": 4230,
      "ĠOh": 4231,
      "Ġmechan": 4232,
      "Not": 4233,
      "âĢĺ": 4234,
      "rian": 4235,
      "Ġnames": 4236,
      "Ġ>": 4237,
      "Ġdepartment": 4238,
      "ĠYour": 4239,
      "Ġchair": 4240,
      "Ġmission": 4241,
      "Ġmostly": 4242,
      "Ġreduce": 4243,
      "!âĢĿ": 4244,
      "Ġcore": 4245,
      "PA": 4246,
      "Ġtemper": 4247,
      "Ġeth": 4248,
      "BA": 4249,
      "ijuana": 4250,
      "ĠAtt": 4251,
      "Ġruns": 4252,
      "Ġcentury": 4253,
      "ĠAmazon": 4254,
      "ĠMike": 4255,
      "igned": 4256,
      "Ġmur": 4257,
      "Ġagreed": 4258,
      "ĠMag": 4259,
      "Ġliter": 4260,
      "Ġleadership": 4261,
      "Ġbirth": 4262,
      "ented": 4263,
      "eline": 4264,
      ".'": 4265,
      "ario": 4266,
      "Ġuns": 4267,
      "ĠAccording": 4268,
      "Ġstyle": 4269,
      "Ġir": 4270,
      "Ġmigr": 4271,
      "Ġresponsible": 4272,
      "see": 4273,
      "Ġactual": 4274,
      "Ġvictims": 4275,
      "Ġachieve": 4276,
      "Ġissued": 4277,
      "ĠPort": 4278,
      "Ġload": 4279,
      "Ġsection": 4280,
      "Ġclosed": 4281,
      "Ġinfluence": 4282,
      "Ġele": 4283,
      "ĠFrance": 4284,
      "lines": 4285,
      "Ġbelieved": 4286,
      "Ġweight": 4287,
      "PS": 4288,
      "Ġvehicle": 4289,
      "ĠMat": 4290,
      "Ġdire": 4291,
      "Ġwonder": 4292,
      "26": 4293,
      "Ġfat": 4294,
      "Ġwhatever": 4295,
      "Ġvs": 4296,
      "ength": 4297,
      "orthern": 4298,
      "Ġdetect": 4299,
      "Ġinterested": 4300,
      "Ġdocuments": 4301,
      "Ġthrow": 4302,
      "ĠMost": 4303,
      "aked": 4304,
      "ĠFox": 4305,
      "attle": 4306,
      "Ġdollars": 4307,
      "ĠFound": 4308,
      "Ġincred": 4309,
      "Ġmeasures": 4310,
      "ctors": 4311,
      "More": 4312,
      "ĠCEO": 4313,
      "ĠSecurity": 4314,
      "Ġstreet": 4315,
      "Ġslight": 4316,
      "Ġdeliver": 4317,
      "Ġmobile": 4318,
      "Ġcoal": 4319,
      "Ġexisting": 4320,
      "acity": 4321,
      "Ġprofessional": 4322,
      "Ġdrop": 4323,
      "Ġrestaur": 4324,
      "Ġdream": 4325,
      "âĢ¢": 4326,
      "Ġcomfort": 4327,
      "coin": 4328,
      "Ġcondition": 4329,
      "ĠLos": 4330,
      "ĠSun": 4331,
      "Ġworse": 4332,
      "ĠPress": 4333,
      "BS": 4334,
      "Ġindependent": 4335,
      "Ġtrend": 4336,
      "Ġreplace": 4337,
      "no": 4338,
      "Ġcommittee": 4339,
      "Ġtrain": 4340,
      "CC": 4341,
      "Ġjustice": 4342,
      "Ġtypes": 4343,
      "icago": 4344,
      "Ġunderstanding": 4345,
      "rial": 4346,
      "ĠFrancis": 4347,
      "ipe": 4348,
      "27": 4349,
      "Ġstre": 4350,
      "ugg": 4351,
      "Ġarm": 4352,
      "Ġgold": 4353,
      "ĠCommun": 4354,
      "Ġ31": 4355,
      "ĠPalest": 4356,
      "ĠUp": 4357,
      "uries": 4358,
      "ĠKh": 4359,
      "ĠMad": 4360,
      "ĠNFL": 4361,
      "ront": 4362,
      "Ġserve": 4363,
      "Ġlegislation": 4364,
      "Ġproposed": 4365,
      "ĠSup": 4366,
      "Ġbasis": 4367,
      "ĠWell": 4368,
      "eg": 4369,
      "Ġkick": 4370,
      "Ġbecoming": 4371,
      "ĠBritain": 4372,
      "hi": 4373,
      "ici": 4374,
      "odes": 4375,
      "Ġcoronavirus": 4376,
      "ilit": 4377,
      "Ġphoto": 4378,
      "Ġeasier": 4379,
      "Ġmount": 4380,
      "Ġframe": 4381,
      "Ġdecade": 4382,
      "Ġcharged": 4383,
      "rey": 4384,
      "Ġharm": 4385,
      "ĠPhil": 4386,
      "illing": 4387,
      "ĠSam": 4388,
      "Ġcash": 4389,
      "ĠWhy": 4390,
      "Ġwitness": 4391,
      "Ġafford": 4392,
      "Ġnine": 4393,
      "Ġproduce": 4394,
      "ĠOver": 4395,
      "Ġbed": 4396,
      "outhern": 4397,
      "Ġenem": 4398,
      "itude": 4399,
      "ĠPak": 4400,
      "ĠFin": 4401,
      "Ġobtain": 4402,
      "Ġscientists": 4403,
      "Ġadvantage": 4404,
      "ference": 4405,
      "Ġactive": 4406,
      "Ġtools": 4407,
      "Ġonto": 4408,
      "Ġwhom": 4409,
      "Ġinfect": 4410,
      "Ġlocation": 4411,
      "ĠLiber": 4412,
      "Ġvill": 4413,
      "ĠCr": 4414,
      "Ġwel": 4415,
      "vis": 4416,
      "soft": 4417,
      "Ġ80": 4418,
      "Ġreject": 4419,
      "Ġdefinitely": 4420,
      "iful": 4421,
      "Ġetc": 4422,
      "Ġsolid": 4423,
      "Ġamb": 4424,
      "works": 4425,
      "annel": 4426,
      "riage": 4427,
      "ingly": 4428,
      "Ġinitial": 4429,
      "FC": 4430,
      "Ġdrink": 4431,
      "house": 4432,
      "ĠMo": 4433,
      "Ġfresh": 4434,
      "ĠInc": 4435,
      "ĠAngeles": 4436,
      "Ġhousing": 4437,
      "Ġtend": 4438,
      "Ġspoke": 4439,
      "Ar": 4440,
      "Ġupdate": 4441,
      "ource": 4442,
      "ĠBank": 4443,
      "Ġextremely": 4444,
      "lied": 4445,
      "Ġsurround": 4446,
      "Ġopened": 4447,
      "Ġcamera": 4448,
      "Ġsleep": 4449,
      "Ġheavy": 4450,
      "Ġviews": 4451,
      "Ġcontrovers": 4452,
      "Ġplease": 4453,
      "Ġdriver": 4454,
      "win": 4455,
      "Ġopinion": 4456,
      "Ġchem": 4457,
      "Ġpattern": 4458,
      "ĠInstitute": 4459,
      "Ġunlike": 4460,
      "twitter": 4461,
      "28": 4462,
      "Our": 4463,
      "ady": 4464,
      "Ġabuse": 4465,
      "Ġfarm": 4466,
      "Ġnegative": 4467,
      "Ġputting": 4468,
      "Ġwinning": 4469,
      "Ġmicro": 4470,
      "ĠTHE": 4471,
      "Ġtransfer": 4472,
      "atically": 4473,
      "ĠDirect": 4474,
      "Ġaudience": 4475,
      "ada": 4476,
      "DA": 4477,
      "Ġtransport": 4478,
      "Ġstrateg": 4479,
      "Ġcoverage": 4480,
      "upp": 4481,
      "Ġrepeated": 4482,
      "Ġstock": 4483,
      "Ġdangerous": 4484,
      "ĠLou": 4485,
      "Ġcontain": 4486,
      "Ġiniti": 4487,
      "ĠBig": 4488,
      "Ġfalse": 4489,
      "cont": 4490,
      "Ġimmigration": 4491,
      "za": 4492,
      "ĠCanadian": 4493,
      "Ġwealth": 4494,
      "Ġmachine": 4495,
      "rig": 4496,
      "bum": 4497,
      "Ġmiles": 4498,
      "Ġfunds": 4499,
      "Ġhomes": 4500,
      "29": 4501,
      "aks": 4502,
      "ĠTer": 4503,
      "Ġvictory": 4504,
      "Ġproviding": 4505,
      "Ġworst": 4506,
      "Bl": 4507,
      "do": 4508,
      "Ġhero": 4509,
      "Ġsupporters": 4510,
      "SA": 4511,
      "ancy": 4512,
      "Ġdouble": 4513,
      "Ġtelev": 4514,
      "umn": 4515,
      "Ġdriving": 4516,
      "level": 4517,
      "Ġresist": 4518,
      "oms": 4519,
      "Ġappeal": 4520,
      "Ġvari": 4521,
      "ae": 4522,
      "makers": 4523,
      "ining": 4524,
      "ĠBecause": 4525,
      "ortunately": 4526,
      "Ġ90": 4527,
      "iliar": 4528,
      "bert": 4529,
      "zen": 4530,
      "ĠUN": 4531,
      "ĠWall": 4532,
      "ĠUs": 4533,
      "Ġspl": 4534,
      "ancing": 4535,
      "Ġbecomes": 4536,
      "anta": 4537,
      "known": 4538,
      "ipp": 4539,
      "Ġblockchain": 4540,
      "ĠJud": 4541,
      "inate": 4542,
      "OL": 4543,
      "Ġactivities": 4544,
      "Ġattend": 4545,
      "ĠJoe": 4546,
      "Ġitems": 4547,
      "well": 4548,
      "Ġdecisions": 4549,
      "ĠJones": 4550,
      "bour": 4551,
      "Ġassociated": 4552,
      "ĠMicro": 4553,
      "Ġrecommend": 4554,
      "ĠAM": 4555,
      "Ġstrik": 4556,
      "ĠPrime": 4557,
      "ĠLike": 4558,
      "Ġdaughter": 4559,
      "Ġbackground": 4560,
      "stein": 4561,
      "Ġcompetition": 4562,
      "Ġpurs": 4563,
      "Ġdebt": 4564,
      "Ġserved": 4565,
      "Ġpurpose": 4566,
      "ĠSupreme": 4567,
      "ĠWestern": 4568,
      "ĠVir": 4569,
      "ĠQue": 4570,
      "Ġtraffic": 4571,
      "ĠChicago": 4572,
      "Ġice": 4573,
      "Ġplanning": 4574,
      "Ġtelling": 4575,
      "Ġcoin": 4576,
      "Ġwatching": 4577,
      "Ġannual": 4578,
      "====": 4579,
      "Ġsites": 4580,
      "Ġ35": 4581,
      "NA": 4582,
      "Ġbur": 4583,
      "Ġgra": 4584,
      "Ġmemory": 4585,
      "tery": 4586,
      "Ġmax": 4587,
      "Ġsupply": 4588,
      "Ġrat": 4589,
      "Ġmurder": 4590,
      "pri": 4591,
      "Ġhighlight": 4592,
      "ĠEv": 4593,
      "Ġproduced": 4594,
      "Ġded": 4595,
      "ĠMP": 4596,
      "Ġmap": 4597,
      "ios": 4598,
      "Ġassess": 4599,
      "Ġseparate": 4600,
      "Ġconcerned": 4601,
      "Ġenforcement": 4602,
      "Ġtask": 4603,
      "ĠMany": 4604,
      "how": 4605,
      "olf": 4606,
      "Ġsuggested": 4607,
      "ĠMexico": 4608,
      "ghan": 4609,
      "Ġhus": 4610,
      "Ġmale": 4611,
      "Ġinstance": 4612,
      "formation": 4613,
      "Ġpartner": 4614,
      "Ġfloor": 4615,
      "person": 4616,
      "istics": 4617,
      "ĠAc": 4618,
      "Ġfinding": 4619,
      "semb": 4620,
      "asy": 4621,
      "overy": 4622,
      "âĢĶâĢĶ": 4623,
      "Ġexplain": 4624,
      "isation": 4625,
      "ĠFore": 4626,
      "Ġconservative": 4627,
      "lands": 4628,
      "Ġblue": 4629,
      "Ġcateg": 4630,
      "ĠInternet": 4631,
      "ords": 4632,
      "Ġaccur": 4633,
      "xit": 4634,
      "oly": 4635,
      "ĠOther": 4636,
      "SP": 4637,
      "Ġspecies": 4638,
      "ears": 4639,
      "ĠAre": 4640,
      "ĠPre": 4641,
      "anted": 4642,
      "Ġcommand": 4643,
      "Ġepisode": 4644,
      "ĠSal": 4645,
      "Ġdoubt": 4646,
      "edy": 4647,
      "Ġelections": 4648,
      "Ġran": 4649,
      "Ġ70": 4650,
      "ih": 4651,
      "Ġallowing": 4652,
      "roll": 4653,
      "Ġfocused": 4654,
      "lor": 4655,
      "Ġsteps": 4656,
      "bing": 4657,
      "Ġtim": 4658,
      "Ġbottom": 4659,
      "Ġdrugs": 4660,
      "ocur": 4661,
      "Ġbelieves": 4662,
      "udd": 4663,
      "tered": 4664,
      "gu": 4665,
      "Ġcommitted": 4666,
      "Ġcann": 4667,
      "ribute": 4668,
      "ampionship": 4669,
      "90": 4670,
      "Ġhack": 4671,
      "Ġship": 4672,
      "Ġdefe": 4673,
      "ocracy": 4674,
      "rad": 4675,
      "33": 4676,
      "Ġpet": 4677,
      "Ġidentified": 4678,
      "Ġsett": 4679,
      "ocol": 4680,
      "rastructure": 4681,
      "ĠCarol": 4682,
      "Ġanimals": 4683,
      "Ġexerc": 4684,
      "Ġchurch": 4685,
      "Ġrequires": 4686,
      "Ġconversation": 4687,
      "Ġlabor": 4688,
      "rive": 4689,
      "night": 4690,
      "ĠHall": 4691,
      "Ġnotice": 4692,
      "Ġmarijuana": 4693,
      "met": 4694,
      "Ġhasn": 4695,
      "Ġdownload": 4696,
      "Ġholding": 4697,
      "ĠGroup": 4698,
      "vention": 4699,
      "Ġplays": 4700,
      "Ġcommercial": 4701,
      "Ġgeneration": 4702,
      "Ġmissing": 4703,
      "Ġfuel": 4704,
      "Ġsun": 4705,
      "itable": 4706,
      "Ġexperts": 4707,
      "ĠIsraeli": 4708,
      "Ġtruly": 4709,
      "Ġdestroy": 4710,
      "itt": 4711,
      "Ġwaiting": 4712,
      "ĠLast": 4713,
      "hedul": 4714,
      "place": 4715,
      "vant": 4716,
      "Ġnotes": 4717,
      "orrow": 4718,
      "Ġconsequ": 4719,
      "Ġfaith": 4720,
      "iller": 4721,
      "Ġcaught": 4722,
      "cknow": 4723,
      "ishment": 4724,
      "resp": 4725,
      "Ġvul": 4726,
      "Ġreturned": 4727,
      "ĠGreat": 4728,
      "Ġscale": 4729,
      "ĠTy": 4730,
      "Ġtalks": 4731,
      "ĠTre": 4732,
      "olly": 4733,
      "icon": 4734,
      "Ġrough": 4735,
      "Ġcards": 4736,
      "ãģ": 4737,
      "ĠSl": 4738,
      "Ġcommission": 4739,
      "Ġassum": 4740,
      "ĠGame": 4741,
      "Ġinjury": 4742,
      "Ġcook": 4743,
      "Ġremoved": 4744,
      "Ġnorth": 4745,
      "Ġdirection": 4746,
      "ĠHillary": 4747,
      "Ġphotos": 4748,
      "ĠRobert": 4749,
      "equ": 4750,
      "Ġamazing": 4751,
      "ĠChris": 4752,
      "Ġdiscovered": 4753,
      "Ġraise": 4754,
      "ulf": 4755,
      "RA": 4756,
      "Ġconstruction": 4757,
      "Ġmarkets": 4758,
      "anging": 4759,
      "Ġaccounts": 4760,
      "Ġfeels": 4761,
      "asion": 4762,
      "Ġolder": 4763,
      "ĠVer": 4764,
      "Ġlargely": 4765,
      "Ġsust": 4766,
      "ups": 4767,
      "ĠSince": 4768,
      "Ġstructure": 4769,
      "Ġaspect": 4770,
      "ĠAfrica": 4771,
      "igan": 4772,
      "ey": 4773,
      "agn": 4774,
      "eless": 4775,
      "icy": 4776,
      "Ġmental": 4777,
      "season": 4778,
      "ĠSaud": 4779,
      "Ġgenerally": 4780,
      "oyal": 4781,
      "Ġrefuge": 4782,
      "osure": 4783,
      "Ġsmaller": 4784,
      "Ġcancer": 4785,
      "Ġidentity": 4786,
      "Ġprotection": 4787,
      "izes": 4788,
      "Ġcatch": 4789,
      "kins": 4790,
      "Ġentirely": 4791,
      "Ġpresence": 4792,
      "Ġattorney": 4793,
      "Des": 4794,
      "Ġjoined": 4795,
      "omas": 4796,
      "Pl": 4797,
      "Ġfiled": 4798,
      "Ġdeploy": 4799,
      "Ġstrength": 4800,
      "Ġmodels": 4801,
      "Ġteach": 4802,
      "Ġmentioned": 4803,
      "iden": 4804,
      "Ġinsurance": 4805,
      "ossible": 4806,
      "Ġalbum": 4807,
      "uration": 4808,
      "ĠJeff": 4809,
      "ĠIslamic": 4810,
      "prof": 4811,
      "Ġinterests": 4812,
      "Ġcells": 4813,
      "ĠLeg": 4814,
      "Ġsports": 4815,
      "cks": 4816,
      "!!": 4817,
      "Ġsupported": 4818,
      "ulated": 4819,
      "Ġborn": 4820,
      "Ġstated": 4821,
      "ĠAssociation": 4822,
      "AA": 4823,
      "abis": 4824,
      "ĠMer": 4825,
      "ait": 4826,
      "Ġkeeping": 4827,
      "Ġfourth": 4828,
      "Ġhappening": 4829,
      "Ġtack": 4830,
      "ĠYes": 4831,
      "Ġoffensive": 4832,
      "but": 4833,
      "Ġemergency": 4834,
      "Ġacknow": 4835,
      "Ġstrike": 4836,
      "Ġ196": 4837,
      "Ġfigures": 4838,
      "âĸ": 4839,
      "Ġhelping": 4840,
      "Ġunit": 4841,
      "Ġbelief": 4842,
      "Ġshares": 4843,
      "itation": 4844,
      "ĠWil": 4845,
      "wing": 4846,
      "Ġtrip": 4847,
      "Ġskills": 4848,
      "Ġsurvey": 4849,
      "onto": 4850,
      "ĠSing": 4851,
      "Ġveter": 4852,
      "anda": 4853,
      "Ġfant": 4854,
      "Ġmanaged": 4855,
      "eah": 4856,
      "Ġnovel": 4857,
      "itutional": 4858,
      "Ġdevelopers": 4859,
      "ipped": 4860,
      "ĠPC": 4861,
      "Ġclick": 4862,
      "ND": 4863,
      "ĠSecretary": 4864,
      "Ġvideos": 4865,
      "inct": 4866,
      "andom": 4867,
      "nel": 4868,
      "andon": 4869,
      "phone": 4870,
      "ĠPet": 4871,
      "amm": 4872,
      "Ġdat": 4873,
      "Ġargument": 4874,
      "Ġdie": 4875,
      "ĠAtl": 4876,
      "ĠAfrican": 4877,
      "Ġapplications": 4878,
      "Ġtheory": 4879,
      "Ġcompar": 4880,
      "ĠMiss": 4881,
      "uct": 4882,
      "Ġnor": 4883,
      "ĠPM": 4884,
      "idering": 4885,
      "ĠCN": 4886,
      "iling": 4887,
      "ortion": 4888,
      "Ġconflict": 4889,
      "Ġtough": 4890,
      "Ġenvironmental": 4891,
      "Ġowner": 4892,
      "ĠPalestin": 4893,
      "Ġthus": 4894,
      "apped": 4895,
      "Ġgirls": 4896,
      "Ġsetting": 4897,
      "cient": 4898,
      "Ġschedul": 4899,
      "Ġseeking": 4900,
      "ENT": 4901,
      "ĠGovernment": 4902,
      "FP": 4903,
      "Ġprosecut": 4904,
      "Go": 4905,
      "Ġspokesman": 4906,
      "ĠMet": 4907,
      "real": 4908,
      "agues": 4909,
      "enses": 4910,
      "Ġoperation": 4911,
      "Ġapply": 4912,
      "ĠÃ": 4913,
      "Ġappropri": 4914,
      "Ġplanned": 4915,
      "Ġconnection": 4916,
      "ĠInter": 4917,
      "ĠAndroid": 4918,
      "ĠJim": 4919,
      "Ġuseful": 4920,
      "Ġarrived": 4921,
      "ĠInstead": 4922,
      "ĠVirgin": 4923,
      "ulate": 4924,
      "Ġstopped": 4925,
      "Ġhusband": 4926,
      "Ġtells": 4927,
      "Ġeditor": 4928,
      "ĠSil": 4929,
      "gers": 4930,
      "Ġrefere": 4931,
      "Ġsecure": 4932,
      "ĠTO": 4933,
      "which": 4934,
      "Ġtests": 4935,
      "Americ": 4936,
      "Ġremind": 4937,
      "Ġkid": 4938,
      "Ġvulner": 4939,
      "Ġinfrastructure": 4940,
      "Ġsurface": 4941,
      "Ġadvis": 4942,
      "owl": 4943,
      "run": 4944,
      "rick": 4945,
      "Ġhate": 4946,
      "Ġplaced": 4947,
      "Ġcapacity": 4948,
      "Ġtelevision": 4949,
      "Ġhelps": 4950,
      "Ġprospect": 4951,
      "Ġexperiment": 4952,
      "ĠResearch": 4953,
      "Ġhair": 4954,
      "ologies": 4955,
      "itz": 4956,
      "Ġder": 4957,
      "outs": 4958,
      "Ġgender": 4959,
      "Ġthanks": 4960,
      "Ġconclud": 4961,
      "Ġbigger": 4962,
      "stream": 4963,
      "Ġorganizations": 4964,
      "Le": 4965,
      "Ġstick": 4966,
      "ula": 4967,
      "IM": 4968,
      "Ġspeaking": 4969,
      "anned": 4970,
      "Ġbomb": 4971,
      "Ġintroduced": 4972,
      "ribe": 4973,
      "ĠProf": 4974,
      "Ġdecide": 4975,
      "Ġinnov": 4976,
      "ibrary": 4977,
      "spe": 4978,
      "Ġunion": 4979,
      "Ġfamiliar": 4980,
      "Ġcolle": 4981,
      "Ġprefer": 4982,
      "hens": 4983,
      "Ġgain": 4984,
      "roud": 4985,
      "ano": 4986,
      "ĠBern": 4987,
      "ĠOut": 4988,
      "Ġcryptocur": 4989,
      "Ġge": 4990,
      "Ġoptim": 4991,
      "Ġpair": 4992,
      "point": 4993,
      "75": 4994,
      "ĠTim": 4995,
      "Ġeat": 4996,
      "ĠDistrict": 4997,
      "ĠService": 4998,
      "Ġappre": 4999,
      "Ġguess": 5000,
      "Ġvehicles": 5001,
      "Ġaggress": 5002,
      "Ġprime": 5003,
      "Ġstarts": 5004,
      "arks": 5005,
      "ĠIr": 5006,
      "Ġhealthy": 5007,
      "Ġconsult": 5008,
      "ocal": 5009,
      "ronic": 5010,
      "ava": 5011,
      "Ġsouth": 5012,
      "CH": 5013,
      "Ġfiles": 5014,
      "ĠFire": 5015,
      "Ġsector": 5016,
      "orage": 5017,
      "atures": 5018,
      "mas": 5019,
      "ĠSur": 5020,
      "ĠDec": 5021,
      "Ġregarding": 5022,
      "Ġretail": 5023,
      "Ġexpert": 5024,
      "VID": 5025,
      "Ġcontext": 5026,
      "ga": 5027,
      "Ġbanks": 5028,
      "ader": 5029,
      "ipment": 5030,
      "antic": 5031,
      "Ġsuggests": 5032,
      "ĠWindows": 5033,
      "Ġchallenges": 5034,
      "ĠTra": 5035,
      "rd": 5036,
      "ĠAfghan": 5037,
      "Ġprofessor": 5038,
      "ĠChief": 5039,
      "Ġpotentially": 5040,
      "ography": 5041,
      "Ġdomestic": 5042,
      "Ġdefensive": 5043,
      "ĠGetty": 5044,
      "isf": 5045,
      "Ġdiscussion": 5046,
      "oted": 5047,
      "Ġvirus": 5048,
      "Ġdepend": 5049,
      "itors": 5050,
      "Ġmarriage": 5051,
      "Ġstandards": 5052,
      "Ġoffering": 5053,
      "ym": 5054,
      "Ġfinished": 5055,
      "Ġkilling": 5056,
      "Ġobvious": 5057,
      "ĠBrexit": 5058,
      "Ġvotes": 5059,
      "look": 5060,
      "Ġboost": 5061,
      "lets": 5062,
      "verse": 5063,
      "cher": 5064,
      "Ġplanet": 5065,
      "Ġchanging": 5066,
      "Ġrent": 5067,
      "Ġotherwise": 5068,
      "Ġagencies": 5069,
      "Ġsides": 5070,
      "Ġyards": 5071,
      "Ġwish": 5072,
      "Ġincreasingly": 5073,
      "Ġpic": 5074,
      "ucky": 5075,
      "Ġmulti": 5076,
      "Last": 5077,
      "ruit": 5078,
      "LE": 5079,
      "Ġlength": 5080,
      "kin": 5081,
      "related": 5082,
      "Ġcorner": 5083,
      "ynam": 5084,
      "Ġdeveloping": 5085,
      "Ġfacing": 5086,
      "ĠBush": 5087,
      "Ġbeautiful": 5088,
      "TH": 5089,
      "ception": 5090,
      "Why": 5091,
      "uate": 5092,
      "odies": 5093,
      "ĠPut": 5094,
      "Tube": 5095,
      "Ġà¤": 5096,
      "Ġoccup": 5097,
      "Ġultimately": 5098,
      "icide": 5099,
      "ĠFoundation": 5100,
      "Ġcircum": 5101,
      "?\"": 5102,
      "aded": 5103,
      "Ġbul": 5104,
      "Ġgraph": 5105,
      "care": 5106,
      "range": 5107,
      "Ġworry": 5108,
      "ĠGood": 5109,
      "Ġtrail": 5110,
      "IV": 5111,
      "Ġtech": 5112,
      "Ġradio": 5113,
      "hem": 5114,
      "Ġrelatively": 5115,
      "dden": 5116,
      "Ġdropped": 5117,
      "Ġ;": 5118,
      "ĠRock": 5119,
      "Ġaffected": 5120,
      "44": 5121,
      "ĠChurch": 5122,
      "Ġmonitor": 5123,
      "Ġcarbon": 5124,
      "ka": 5125,
      "Ġabsolutely": 5126,
      "Ġbringing": 5127,
      "ĠTeam": 5128,
      "Ġcollection": 5129,
      "ĠST": 5130,
      "Ġguarant": 5131,
      "Ġlosing": 5132,
      "ĠMicrosoft": 5133,
      "Ġpaying": 5134,
      "Ġcouncil": 5135,
      "rees": 5136,
      "à¥": 5137,
      "ĠSaudi": 5138,
      "ashed": 5139,
      "Ġestablished": 5140,
      "ils": 5141,
      "Ġclin": 5142,
      "ĠLabour": 5143,
      "gn": 5144,
      "36": 5145,
      "ĠJewish": 5146,
      "Ġbalance": 5147,
      "ĠRyan": 5148,
      "what": 5149,
      "ĠPublic": 5150,
      "ĠIN": 5151,
      "iams": 5152,
      "Ġfellow": 5153,
      "Ġhonest": 5154,
      "Ġoperating": 5155,
      "Ġgovernments": 5156,
      "ION": 5157,
      "ighter": 5158,
      "Ġteen": 5159,
      "cel": 5160,
      "ĠTwo": 5161,
      "ĠToronto": 5162,
      "ivered": 5163,
      "onym": 5164,
      "ĠConst": 5165,
      "Ġstanding": 5166,
      "Ġtherefore": 5167,
      "Ġnewsp": 5168,
      "Ġfle": 5169,
      "Ġreporters": 5170,
      "oving": 5171,
      "Ġsequ": 5172,
      "esters": 5173,
      "Ġjail": 5174,
      "Ġsubsc": 5175,
      "Ġgay": 5176,
      "Ġ2007": 5177,
      "Ġguard": 5178,
      "ruption": 5179,
      "Ġfailure": 5180,
      "Ġinstit": 5181,
      "anche": 5182,
      "lies": 5183,
      "adium": 5184,
      "Ġallegations": 5185,
      "ĠAustralian": 5186,
      "Ġweak": 5187,
      "Ġsudden": 5188,
      "Ġopportunities": 5189,
      "Let": 5190,
      "Even": 5191,
      "ĠMel": 5192,
      "Ġcrew": 5193,
      "Ġ45": 5194,
      "Ġreportedly": 5195,
      "lig": 5196,
      "Ġacadem": 5197,
      "olit": 5198,
      "Ġapart": 5199,
      "ĠCentral": 5200,
      "Ġresponsibility": 5201,
      "ĠLouis": 5202,
      "osen": 5203,
      "IP": 5204,
      "Ġspect": 5205,
      "Ġaward": 5206,
      "gar": 5207,
      "uke": 5208,
      "Ġvoting": 5209,
      "Ġlock": 5210,
      "Ġcold": 5211,
      "Ġcarried": 5212,
      "Ġath": 5213,
      "ĠGuard": 5214,
      "Ġvision": 5215,
      "Ġec": 5216,
      "Ġvariety": 5217,
      "Cl": 5218,
      "Ġadjust": 5219,
      "Ġalternative": 5220,
      "Ġspirit": 5221,
      "Ġunivers": 5222,
      "Ġstruct": 5223,
      "ĠBur": 5224,
      "Ġnone": 5225,
      "Ġtransl": 5226,
      "acks": 5227,
      "App": 5228,
      "Ġcloser": 5229,
      "Ġserver": 5230,
      "Ġthank": 5231,
      "Ġcorporate": 5232,
      "iter": 5233,
      "32": 5234,
      "Ġwindow": 5235,
      "pm": 5236,
      "ĠPakistan": 5237,
      "________": 5238,
      "Ġpossibility": 5239,
      "Ġapps": 5240,
      "Ġflight": 5241,
      "Ġpurchase": 5242,
      "ĠTheir": 5243,
      "Ġtight": 5244,
      "Ġinternal": 5245,
      "ĠMos": 5246,
      "Ġtwice": 5247,
      "noon": 5248,
      "Ġterrit": 5249,
      "Ġelements": 5250,
      "state": 5251,
      "orial": 5252,
      "Ġinvestors": 5253,
      "38": 5254,
      "ius": 5255,
      "Ġstreets": 5256,
      "Ġequipment": 5257,
      "Ġheat": 5258,
      "Ġsettle": 5259,
      "Ġcopyright": 5260,
      "Ġsitting": 5261,
      "ĠImage": 5262,
      "Ġdeaths": 5263,
      "OW": 5264,
      "Ġhumans": 5265,
      "From": 5266,
      "ĠJose": 5267,
      "Ġslightly": 5268,
      "ĠSyrian": 5269,
      "erous": 5270,
      "Ġskin": 5271,
      "Ã¡": 5272,
      "Ġproposal": 5273,
      "=\"": 5274,
      "agram": 5275,
      "itect": 5276,
      "ĠRichard": 5277,
      "Ġsale": 5278,
      "Ġimpossible": 5279,
      "isted": 5280,
      "ĠSol": 5281,
      "ĠAri": 5282,
      "Image": 5283,
      "Ġbaby": 5284,
      "ĠNH": 5285,
      "Ġexpensive": 5286,
      "ĠFrank": 5287,
      "Ġvast": 5288,
      "Ġprepared": 5289,
      "Ġsurprise": 5290,
      "ĠLat": 5291,
      "ĠDen": 5292,
      "Ġseconds": 5293,
      "with": 5294,
      "ĠDaily": 5295,
      "ĠFrancisco": 5296,
      "ĠKim": 5297,
      "Ġsport": 5298,
      "Ġanimal": 5299,
      "Ġton": 5300,
      "].": 5301,
      "Ġdetermine": 5302,
      "ayer": 5303,
      "ĠMartin": 5304,
      "mail": 5305,
      "Ġrapid": 5306,
      "Ġrevenue": 5307,
      "Ġstress": 5308,
      "arsh": 5309,
      "Ġtaxes": 5310,
      "Ġfundament": 5311,
      "ĠAlso": 5312,
      "Ġongoing": 5313,
      "Ġneighborhood": 5314,
      "ĠJapanese": 5315,
      "Ġremove": 5316,
      "Ġsea": 5317,
      "Ġturns": 5318,
      "Just": 5319,
      "Ġearth": 5320,
      "Ġauthority": 5321,
      "ores": 5322,
      "iation": 5323,
      "ansion": 5324,
      "ĠMur": 5325,
      "Ġroll": 5326,
      "Ġ32": 5327,
      "Ġruling": 5328,
      "life": 5329,
      "ĠCollege": 5330,
      "48": 5331,
      "Ġvoted": 5332,
      "ĠJon": 5333,
      "ĠCarolina": 5334,
      "Ġsolar": 5335,
      "UT": 5336,
      "Ġplenty": 5337,
      "ĠCamp": 5338,
      "ĠJournal": 5339,
      "Ġreporting": 5340,
      "ĠPhoto": 5341,
      "ressive": 5342,
      "Ġfired": 5343,
      "Ġuniversity": 5344,
      "Of": 5345,
      "Ġmere": 5346,
      "Ġwal": 5347,
      "Ġrich": 5348,
      "Ġfactors": 5349,
      "ĠHaw": 5350,
      "ĠConserv": 5351,
      "Ġperspect": 5352,
      "Ġexcited": 5353,
      "Read": 5354,
      "oken": 5355,
      "37": 5356,
      "ola": 5357,
      "iot": 5358,
      "Ġtrig": 5359,
      "ĠAndrew": 5360,
      "Ġseasons": 5361,
      "ours": 5362,
      "ini": 5363,
      "ĠMary": 5364,
      "ros": 5365,
      "Ġelim": 5366,
      "Ġtrading": 5367,
      "Ġpossibly": 5368,
      "ĠMont": 5369,
      "ĠThomas": 5370,
      "Ġlived": 5371,
      "Ġfaster": 5372,
      "cean": 5373,
      "Ġselling": 5374,
      "ĠMil": 5375,
      "ĠGal": 5376,
      "ĠCur": 5377,
      "Ġcovered": 5378,
      "Ġrevolution": 5379,
      "Ġsounds": 5380,
      "raud": 5381,
      "Ġspecifically": 5382,
      "reens": 5383,
      "azine": 5384,
      "Ġexpressed": 5385,
      "Ġafternoon": 5386,
      "van": 5387,
      "Ġidentify": 5388,
      "ĠUkraine": 5389,
      "ĠThose": 5390,
      "Ġelected": 5391,
      "Ġsigns": 5392,
      "ĠRo": 5393,
      "Ġevening": 5394,
      "Ġcollabor": 5395,
      "terday": 5396,
      "Ġdenied": 5397,
      "Ġconsidering": 5398,
      "Ġexperienced": 5399,
      "onom": 5400,
      "Ġunits": 5401,
      "emic": 5402,
      "Ġimagine": 5403,
      "ĠGOP": 5404,
      "ĠUSA": 5405,
      "DP": 5406,
      "ĠYouTube": 5407,
      "Ġpredict": 5408,
      "Ġscript": 5409,
      "ĠRom": 5410,
      "Ġestimated": 5411,
      "ĠSub": 5412,
      "uzz": 5413,
      "under": 5414,
      "Ġphil": 5415,
      "hand": 5416,
      "oston": 5417,
      "Ġprove": 5418,
      "49": 5419,
      "ĠSpace": 5420,
      "alls": 5421,
      "idel": 5422,
      "Ġflow": 5423,
      "ureau": 5424,
      "Ġdegree": 5425,
      "Ġpoliticians": 5426,
      "ĠMedic": 5427,
      "Ġaid": 5428,
      "Ġconducted": 5429,
      "uster": 5430,
      "Ġhttp": 5431,
      "Ġunless": 5432,
      "CL": 5433,
      "Ġstars": 5434,
      "Ġlawyer": 5435,
      "clusion": 5436,
      "icate": 5437,
      "ĠTime": 5438,
      "obody": 5439,
      "Ġexclus": 5440,
      "abilities": 5441,
      "ĠBBC": 5442,
      "Ġapparently": 5443,
      ",âĢĻ": 5444,
      "ĠPeter": 5445,
      "Every": 5446,
      "ointed": 5447,
      "Ġbroken": 5448,
      "Ġscientific": 5449,
      "Do": 5450,
      "ĠRE": 5451,
      "Ġupdated": 5452,
      "plom": 5453,
      "inating": 5454,
      "Ġpil": 5455,
      "awn": 5456,
      "Ġpointed": 5457,
      "Ġvalid": 5458,
      "ashion": 5459,
      "ĠLee": 5460,
      "porary": 5461,
      "Ġbroke": 5462,
      "Ġregime": 5463,
      "idden": 5464,
      "Ġannouncement": 5465,
      "ĠOpen": 5466,
      "Ġgather": 5467,
      "Ġbreat": 5468,
      "Ġprotests": 5469,
      "Ġclim": 5470,
      "IG": 5471,
      "standing": 5472,
      "Ġodd": 5473,
      "ĠToday": 5474,
      "ĠSocial": 5475,
      "Ġrenew": 5476,
      "Ġlob": 5477,
      "Ġdin": 5478,
      "Ġmut": 5479,
      "Ġ500": 5480,
      "ĠFe": 5481,
      "Ġsupporting": 5482,
      "Ġce": 5483,
      "tion": 5484,
      ",'": 5485,
      "ĠMiddle": 5486,
      "ala": 5487,
      "aven": 5488,
      "ĠDirector": 5489,
      "ĠTurkey": 5490,
      "Ġresponded": 5491,
      "ĠVirginia": 5492,
      "Ġmatters": 5493,
      "aine": 5494,
      "Ġseat": 5495,
      "Ġwearing": 5496,
      "Ġtast": 5497,
      "Ġdepart": 5498,
      "Ġcuts": 5499,
      "Ġwarned": 5500,
      "rible": 5501,
      "rie": 5502,
      "Ste": 5503,
      "Ġwriter": 5504,
      "Ġyouth": 5505,
      "55": 5506,
      "Ġtourn": 5507,
      "47": 5508,
      "Ġadvice": 5509,
      "ĠRem": 5510,
      "Ġproceed": 5511,
      "Ġpresented": 5512,
      "Ġfamous": 5513,
      "sts": 5514,
      "ĠBet": 5515,
      "reland": 5516,
      "usiness": 5517,
      "vey": 5518,
      "Another": 5519,
      "Ġmarg": 5520,
      "Ġhopes": 5521,
      "illa": 5522,
      "Ġconsumers": 5523,
      "Since": 5524,
      "road": 5525,
      "Ġhandle": 5526,
      "Ġappreci": 5527,
      "Ġrid": 5528,
      "ĠNor": 5529,
      "Ġcannabis": 5530,
      "ĠAlthough": 5531,
      "ĠMedia": 5532,
      "Ġdram": 5533,
      "Ġshift": 5534,
      "ĠShow": 5535,
      "ĠParis": 5536,
      "coh": 5537,
      "edd": 5538,
      "Ġgar": 5539,
      "Ġrefused": 5540,
      "apers": 5541,
      "Ġinsp": 5542,
      "col": 5543,
      "lyn": 5544,
      "Ġhol": 5545,
      "ĠOnce": 5546,
      "Ġdelay": 5547,
      "aling": 5548,
      "there": 5549,
      "och": 5550,
      "Ġapproved": 5551,
      "Ġpackage": 5552,
      "Ġprinc": 5553,
      "Ġconfirm": 5554,
      "Ġweren": 5555,
      "Ġdelivered": 5556,
      "Ġprivacy": 5557,
      "Ġcrimes": 5558,
      "abin": 5559,
      "Am": 5560,
      "ĠUnder": 5561,
      "ĠForce": 5562,
      "ĠFederal": 5563,
      "ensions": 5564,
      "Ġinvolve": 5565,
      "ilty": 5566,
      "ĠArmy": 5567,
      "ĠMatt": 5568,
      "sen": 5569,
      "issions": 5570,
      "Ġreli": 5571,
      "ias": 5572,
      "inent": 5573,
      "ĠMass": 5574,
      "ĠWeb": 5575,
      "Ġconfident": 5576,
      "Pe": 5577,
      "Ġbull": 5578,
      "Ġminimum": 5579,
      "ĠIsland": 5580,
      "isher": 5581,
      "His": 5582,
      "Up": 5583,
      "cious": 5584,
      "Sp": 5585,
      "Ġclot": 5586,
      "ĠWilliams": 5587,
      "Ġcoord": 5588,
      "Ġconfidence": 5589,
      "Ġfinish": 5590,
      "Ġsignificantly": 5591,
      "ĠColor": 5592,
      "Ġintended": 5593,
      "essions": 5594,
      "Ġheav": 5595,
      "TS": 5596,
      "https": 5597,
      "39": 5598,
      "Ġproced": 5599,
      "phas": 5600,
      "Ġlocated": 5601,
      "Ġagent": 5602,
      "redit": 5603,
      "ador": 5604,
      "rier": 5605,
      "ĠFree": 5606,
      "ĠRead": 5607,
      "Ġlisten": 5608,
      "ĠWho": 5609,
      "gl": 5610,
      "Ġpieces": 5611,
      "Ġstorm": 5612,
      "Ġfol": 5613,
      "Ġrally": 5614,
      "Ġpositions": 5615,
      "Ġcloud": 5616,
      "ĠAny": 5617,
      "ĠML": 5618,
      "endment": 5619,
      "Ġwithd": 5620,
      "Ġleads": 5621,
      "Ġcooper": 5622,
      "Ġweather": 5623,
      "Ġinstitutions": 5624,
      "Ġbrows": 5625,
      "Ġdiscl": 5626,
      "istered": 5627,
      "Ġfif": 5628,
      "Ġ36": 5629,
      "Ne": 5630,
      "Ġhurt": 5631,
      "Ind": 5632,
      "Ġsecretary": 5633,
      "Ġherself": 5634,
      "Ġpercentage": 5635,
      "Ġera": 5636,
      "Ġmessages": 5637,
      "Ġprompt": 5638,
      "Ġallegedly": 5639,
      "ĠRoad": 5640,
      "Ġpanel": 5641,
      "PR": 5642,
      "class": 5643,
      "ĠPower": 5644,
      "nell": 5645,
      "ĠWin": 5646,
      "Ġtreated": 5647,
      "useum": 5648,
      "ownt": 5649,
      "Ġplus": 5650,
      "Ġargued": 5651,
      "ĠGree": 5652,
      "Ġcas": 5653,
      "Ġmode": 5654,
      "Ġarmy": 5655,
      "Ġpatient": 5656,
      "Ġseriously": 5657,
      "Ġarms": 5658,
      "Ġdetermined": 5659,
      "Ġobviously": 5660,
      "Ġgiant": 5661,
      "pet": 5662,
      "bur": 5663,
      "Ġscheduled": 5664,
      "Ġreact": 5665,
      "Ġforms": 5666,
      "Ġsym": 5667,
      "ĠHy": 5668,
      "Ġpublicly": 5669,
      "Ġmotiv": 5670,
      "ucks": 5671,
      "Ġparliament": 5672,
      "Ġchemical": 5673,
      "Ġthr": 5674,
      "Ġstatements": 5675,
      "Ġtechnical": 5676,
      "oading": 5677,
      "Ġnar": 5678,
      "Ġstruggle": 5679,
      "Ġupgr": 5680,
      "Ġadvance": 5681,
      "Ġsevere": 5682,
      "ogue": 5683,
      "Ġtransition": 5684,
      "Ġdismiss": 5685,
      "Ġmethods": 5686,
      "oral": 5687,
      "ĠJes": 5688,
      "Ġrandom": 5689,
      "Ġcultural": 5690,
      "Ġassets": 5691,
      "gment": 5692,
      "Ġbeer": 5693,
      "Ġtested": 5694,
      "Ġstret": 5695,
      "ĠIreland": 5696,
      "Ġproud": 5697,
      "ĠSpr": 5698,
      "ĠDan": 5699,
      "\":": 5700,
      "gypt": 5701,
      "ternal": 5702,
      "Ab": 5703,
      "ĠFed": 5704,
      "Ġinjured": 5705,
      "SS": 5706,
      "ĠMs": 5707,
      "Ġbasically": 5708,
      "ĠBoston": 5709,
      "Ġpassing": 5710,
      "Ġfindings": 5711,
      "Ġfaces": 5712,
      "obe": 5713,
      "Ġloved": 5714,
      "ighters": 5715,
      "ourney": 5716,
      "Ġessential": 5717,
      "Ġcompleted": 5718,
      "Follow": 5719,
      "Ġactivists": 5720,
      "ĠBoth": 5721,
      "Ġdeclined": 5722,
      "Ġremaining": 5723,
      "Ġbelong": 5724,
      "olved": 5725,
      "ipping": 5726,
      "Ġfrustr": 5727,
      "aints": 5728,
      "ĠNov": 5729,
      "Ġswitch": 5730,
      "ĠProject": 5731,
      "Ġshape": 5732,
      "Ġcustomer": 5733,
      "Ġspring": 5734,
      "Ġstands": 5735,
      "ĠJackson": 5736,
      "Ġgrew": 5737,
      "Ġplants": 5738,
      "ĠDevelop": 5739,
      "****": 5740,
      "Ġclient": 5741,
      "press": 5742,
      "hered": 5743,
      "Ġgreatest": 5744,
      "ĠStep": 5745,
      "Ġque": 5746,
      "iat": 5747,
      "Ġsurprising": 5748,
      "enced": 5749,
      "ĠBob": 5750,
      "Ġcoast": 5751,
      "##": 5752,
      "ĠMichigan": 5753,
      "Ġadmitted": 5754,
      "Ġliberal": 5755,
      "Ġdrivers": 5756,
      "estival": 5757,
      "Ġemp": 5758,
      "ĠTechn": 5759,
      "Ġsch": 5760,
      "asks": 5761,
      "ĠPac": 5762,
      "Ġexplo": 5763,
      "ERS": 5764,
      "Ġmarketing": 5765,
      "Ġentertain": 5766,
      "Ġcombat": 5767,
      "fe": 5768,
      "Ġends": 5769,
      "Ġrain": 5770,
      "arp": 5771,
      "Ġbought": 5772,
      "Ġmand": 5773,
      "isters": 5774,
      "Ġflood": 5775,
      "imal": 5776,
      "Spe": 5777,
      "Ġprotected": 5778,
      "top": 5779,
      "ĠMem": 5780,
      "Ġsession": 5781,
      "ĠHarr": 5782,
      "Ġlots": 5783,
      "46": 5784,
      "Ġtact": 5785,
      "MA": 5786,
      "Ġappearance": 5787,
      "Ġburn": 5788,
      "Ġpulled": 5789,
      "elly": 5790,
      "Ġquarterback": 5791,
      "Ġmaster": 5792,
      "Ġreserv": 5793,
      "Ġequal": 5794,
      "ĠIC": 5795,
      "Ġ2006": 5796,
      "ĠiPh": 5797,
      "Ġdebut": 5798,
      "free": 5799,
      "ĠPrem": 5800,
      "Us": 5801,
      "Ġconnected": 5802,
      "Ġerror": 5803,
      "Ġreduced": 5804,
      "()": 5805,
      "Ġwaste": 5806,
      "Ġadvert": 5807,
      "hab": 5808,
      "Ġ2000": 5809,
      "Ġmal": 5810,
      "Ġquant": 5811,
      "ĠRel": 5812,
      "Ġminute": 5813,
      "ĠRiver": 5814,
      "ĠStr": 5815,
      "inte": 5816,
      "Ġexperiences": 5817,
      "Ġchain": 5818,
      "Ġcombined": 5819,
      "Res": 5820,
      "Ġweapon": 5821,
      "Ġfaced": 5822,
      "ĠBack": 5823,
      "Ġdiplom": 5824,
      "Ġdeclared": 5825,
      "Ġguilty": 5826,
      "Ġlawsuit": 5827,
      "Ġinjuries": 5828,
      "Ġremained": 5829,
      "unte": 5830,
      "Ġsubs": 5831,
      "aren": 5832,
      "ĠSteve": 5833,
      "Ġdecent": 5834,
      "Ġsoldiers": 5835,
      "aniel": 5836,
      "Ġstorage": 5837,
      "Ġinstruct": 5838,
      "Ġtalked": 5839,
      "Ġcentre": 5840,
      "Ġtroops": 5841,
      "Ġfacility": 5842,
      "Ġagents": 5843,
      "ĠWeek": 5844,
      "ĠWatch": 5845,
      "Cont": 5846,
      "ĠScience": 5847,
      "Ġhun": 5848,
      "Ġunable": 5849,
      "ĠCath": 5850,
      "Ġrecorded": 5851,
      "TV": 5852,
      "ĠNAS": 5853,
      "Ġattempts": 5854,
      "rid": 5855,
      "ĠHol": 5856,
      "dule": 5857,
      "Ġpool": 5858,
      "Ġviolent": 5859,
      "razil": 5860,
      "ita": 5861,
      "den": 5862,
      "Ġpod": 5863,
      "Ġexplos": 5864,
      "ocking": 5865,
      "Rep": 5866,
      "Ġzone": 5867,
      "Ġpractices": 5868,
      "evin": 5869,
      "abled": 5870,
      "ĠCy": 5871,
      "Ġsymb": 5872,
      "Ġlinked": 5873,
      "date": 5874,
      "ributed": 5875,
      "apping": 5876,
      "Ġbitcoin": 5877,
      "ooth": 5878,
      "Ġvisual": 5879,
      "aled": 5880,
      "Ġreligion": 5881,
      "Ġforget": 5882,
      "TA": 5883,
      "Ġdoctor": 5884,
      "ht": 5885,
      "Ġturning": 5886,
      "Ġoccurred": 5887,
      "Ġindeed": 5888,
      "Ġfactor": 5889,
      "Ġresident": 5890,
      "Ġoriginally": 5891,
      "oves": 5892,
      "etic": 5893,
      "ĠHuman": 5894,
      "Ġupcoming": 5895,
      "],": 5896,
      "ĠCharl": 5897,
      "Ġgrab": 5898,
      "Ġgovernor": 5899,
      "Ġthreats": 5900,
      "ompl": 5901,
      "long": 5902,
      "urb": 5903,
      "nergy": 5904,
      "Ġexcell": 5905,
      "Ġshouldn": 5906,
      "Ġwidely": 5907,
      "Ġaccident": 5908,
      "PD": 5909,
      "ulations": 5910,
      "vin": 5911,
      "ĠWork": 5912,
      "Ġsatisf": 5913,
      "Ġcircumst": 5914,
      "mates": 5915,
      "Ġhyp": 5916,
      "Ġperspective": 5917,
      "mosp": 5918,
      "Ġsuffered": 5919,
      "Over": 5920,
      "Ġflat": 5921,
      "Ġrising": 5922,
      "anged": 5923,
      "Ġscr": 5924,
      "Ġbodies": 5925,
      "Ġwarning": 5926,
      "ĠMa": 5927,
      "Ġexplains": 5928,
      "Ġordered": 5929,
      "ĠDou": 5930,
      "Ġquiet": 5931,
      "IR": 5932,
      "Other": 5933,
      "ĠWal": 5934,
      "Ġsplit": 5935,
      "Ġconvention": 5936,
      "adow": 5937,
      "centr": 5938,
      "that": 5939,
      "Ġbound": 5940,
      "Ġcontrast": 5941,
      "pass": 5942,
      "asp": 5943,
      "sembly": 5944,
      "ĠBiden": 5945,
      "Ġdemocracy": 5946,
      "Ġmanage": 5947,
      "Ġdiss": 5948,
      "Ġcalcul": 5949,
      "ĠKorean": 5950,
      "Ġtele": 5951,
      "Äĥ": 5952,
      "Ġcry": 5953,
      "eds": 5954,
      "Ġast": 5955,
      "Ġtypically": 5956,
      "oking": 5957,
      "enture": 5958,
      "ĠOhio": 5959,
      "agers": 5960,
      "Ġflag": 5961,
      "rawn": 5962,
      "osite": 5963,
      "Ġtalent": 5964,
      "ĠWood": 5965,
      "Ġpages": 5966,
      "resents": 5967,
      "Ġstores": 5968,
      "ĠID": 5969,
      "oung": 5970,
      "ampion": 5971,
      "EW": 5972,
      "Add": 5973,
      "ĠCheck": 5974,
      "enda": 5975,
      "Ġreaction": 5976,
      "ĠAv": 5977,
      "Ġthoughts": 5978,
      "ĠBook": 5979,
      "Ġrestaurant": 5980,
      "word": 5981,
      "Ġmovies": 5982,
      "Ġeffectively": 5983,
      "Ġsem": 5984,
      "Ġcoff": 5985,
      "Ġdatab": 5986,
      "Ġfilms": 5987,
      "unction": 5988,
      "mm": 5989,
      "Ġshop": 5990,
      "Ġroute": 5991,
      "hy": 5992,
      "34": 5993,
      "Ġpowers": 5994,
      "ez": 5995,
      "Ġeval": 5996,
      "Ġmissed": 5997,
      "called": 5998,
      "cohol": 5999,
      "Ġfraud": 6000,
      "Ġphilos": 6001,
      "Ġid": 6002,
      "Ġglass": 6003,
      "razy": 6004,
      "anges": 6005,
      "Ġdiscrim": 6006,
      "Ġdifferences": 6007,
      "Ġcolumn": 6008,
      "ĠHome": 6009,
      "Ġappropriate": 6010,
      "ĠSystem": 6011,
      "Ġperman": 6012,
      "ĠChristmas": 6013,
      "uous": 6014,
      "Ġtun": 6015,
      "Ġcongress": 6016,
      "MP": 6017,
      "ĠRad": 6018,
      "ĠYet": 6019,
      "rog": 6020,
      "orders": 6021,
      "Ġsets": 6022,
      "rip": 6023,
      "Ġcolleagues": 6024,
      "Ġlisted": 6025,
      "ĠSupp": 6026,
      "Ġdoctors": 6027,
      "Many": 6028,
      "oty": 6029,
      "ĠVict": 6030,
      "Ġcriticism": 6031,
      "Ġreceiving": 6032,
      "ĠGrand": 6033,
      "Ġcurrency": 6034,
      "Ġlegit": 6035,
      "lymp": 6036,
      "uations": 6037,
      "orry": 6038,
      "Ġtrouble": 6039,
      "ket": 6040,
      "Ġvan": 6041,
      "ocratic": 6042,
      "Ġwalking": 6043,
      "Ġcrack": 6044,
      "Ġpicked": 6045,
      "ĠEgypt": 6046,
      "Ġpushed": 6047,
      "inals": 6048,
      "Ġnumerous": 6049,
      "Ġbrings": 6050,
      "ĠCru": 6051,
      "mond": 6052,
      "Ġexercise": 6053,
      "Ġwood": 6054,
      "uts": 6055,
      "Ġbuying": 6056,
      "Ġfly": 6057,
      "ĠSqu": 6058,
      "Ġconsequences": 6059,
      "Ġcapable": 6060,
      "During": 6061,
      "ðŁ": 6062,
      "Ġmaterials": 6063,
      "ĠPenn": 6064,
      "Ġenh": 6065,
      "Ġtransform": 6066,
      "eration": 6067,
      "Ġentry": 6068,
      "gent": 6069,
      "astern": 6070,
      "essor": 6071,
      "ĠOk": 6072,
      "ouston": 6073,
      "Ġwear": 6074,
      "Ġdefault": 6075,
      "Ġsought": 6076,
      "Ġcart": 6077,
      "Ġfranch": 6078,
      "Ġlinks": 6079,
      "Ġdynam": 6080,
      "Ġoffense": 6081,
      "Ġelement": 6082,
      "zer": 6083,
      "ishes": 6084,
      "whel": 6085,
      "ache": 6086,
      "ĠDuring": 6087,
      "Ġopposed": 6088,
      "Ġadvanced": 6089,
      "Ġnetworks": 6090,
      "Ġisol": 6091,
      "ĠEp": 6092,
      "Ġourselves": 6093,
      "Ġresolution": 6094,
      "rant": 6095,
      "Ġadds": 6096,
      "Ġinitially": 6097,
      "host": 6098,
      "Ġupdates": 6099,
      "Ġdistance": 6100,
      "Ġpayment": 6101,
      "law": 6102,
      "Ġregulations": 6103,
      "Ġreference": 6104,
      "Ġchannel": 6105,
      "ĠLake": 6106,
      "Ġsolutions": 6107,
      "Ġsubstant": 6108,
      "war": 6109,
      "Ġarchitect": 6110,
      "ĠAsia": 6111,
      "ĠReuters": 6112,
      "Ġconfig": 6113,
      "Ġprotesters": 6114,
      "ĠGeorg": 6115,
      "icing": 6116,
      "Ġleaves": 6117,
      "Ġsick": 6118,
      "Ġzero": 6119,
      "Ġemphas": 6120,
      "arl": 6121,
      "ounded": 6122,
      "enger": 6123,
      "respond": 6124,
      "ensus": 6125,
      "Ġsharing": 6126,
      "Ġforg": 6127,
      "andal": 6128,
      "Ġsad": 6129,
      "Ġmoments": 6130,
      "De": 6131,
      "Ġedge": 6132,
      "Ġdim": 6133,
      "Ġresc": 6134,
      "employ": 6135,
      "Ġbehavi": 6136,
      "ĠRam": 6137,
      "athan": 6138,
      "Ġshall": 6139,
      "Ġtransp": 6140,
      "Getty": 6141,
      "OC": 6142,
      "Ġbond": 6143,
      "Ġmanufacture": 6144,
      "Ġfacilities": 6145,
      "Ġalongside": 6146,
      "odd": 6147,
      "Ġsuit": 6148,
      "ĠBrazil": 6149,
      "icious": 6150,
      "Ġfill": 6151,
      "Ġpitch": 6152,
      "water": 6153,
      "First": 6154,
      "asure": 6155,
      "Ġguide": 6156,
      "uls": 6157,
      "ena": 6158,
      "Ġtargets": 6159,
      "Ġemissions": 6160,
      "Ġroughly": 6161,
      "ĠFord": 6162,
      "Ġimmigrants": 6163,
      "VER": 6164,
      "Ġparticipants": 6165,
      "Ġaccompl": 6166,
      "Ġathlet": 6167,
      "Ġrisks": 6168,
      "ĠSum": 6169,
      "Ġbreaking": 6170,
      "Ġcontest": 6171,
      "ĠScot": 6172,
      "orse": 6173,
      "Ġeverybody": 6174,
      "Ġorders": 6175,
      "aped": 6176,
      "Ġmort": 6177,
      "ua": 6178,
      "Ġarticles": 6179,
      "certain": 6180,
      "Ġyesterday": 6181,
      "acr": 6182,
      "Ġmoves": 6183,
      "Ġabortion": 6184,
      "ĠCOVID": 6185,
      "Ġauth": 6186,
      "Ġfacts": 6187,
      "iest": 6188,
      "ĠNBA": 6189,
      "Ġplayoff": 6190,
      "Ġconcentr": 6191,
      "Ġnecessarily": 6192,
      "Ġposts": 6193,
      "ĠPutin": 6194,
      "ĠOlymp": 6195,
      "aza": 6196,
      "ĠAff": 6197,
      "ĠBoard": 6198,
      "Se": 6199,
      "cons": 6200,
      "Ġfilled": 6201,
      "Ġrepresents": 6202,
      "acter": 6203,
      "Ġconstruct": 6204,
      "Ġcreation": 6205,
      "ĠGen": 6206,
      "Well": 6207,
      "Ġhotel": 6208,
      "Ġdiscussed": 6209,
      "ellow": 6210,
      "Ġessentially": 6211,
      "angers": 6212,
      "ĠSher": 6213,
      "Ġride": 6214,
      "apter": 6215,
      "Pol": 6216,
      "Although": 6217,
      "ĠAT": 6218,
      "active": 6219,
      "Ġfavour": 6220,
      "Ġthinks": 6221,
      "Man": 6222,
      "Ġvice": 6223,
      "Ġtargeted": 6224,
      "ĠJul": 6225,
      "Ġrelevant": 6226,
      "ordan": 6227,
      "Ġexpansion": 6228,
      "Ġpayments": 6229,
      "Ġnative": 6230,
      "Ġjourney": 6231,
      "Ġpra": 6232,
      "cho": 6233,
      "Ġisland": 6234,
      "Ġ2005": 6235,
      "Ġarmed": 6236,
      "Then": 6237,
      "ĠPlease": 6238,
      "Ġrail": 6239,
      "ĠCard": 6240,
      "can": 6241,
      "Ġvacc": 6242,
      "95": 6243,
      "Ġconsumer": 6244,
      "ansas": 6245,
      "Can": 6246,
      "Ġrepeatedly": 6247,
      "Ġrequirements": 6248,
      "ĠGra": 6249,
      "Ġfollows": 6250,
      "ĠFar": 6251,
      "ĠSky": 6252,
      "ĠPlan": 6253,
      "ĠMake": 6254,
      "ollywood": 6255,
      "Ġincreases": 6256,
      "friend": 6257,
      "Ġ//": 6258,
      "Ġimproved": 6259,
      "Ġwarm": 6260,
      "Ġinqu": 6261,
      "Ġbuildings": 6262,
      "Ġnations": 6263,
      "Ġsam": 6264,
      "ĠLife": 6265,
      "Ġnewspaper": 6266,
      "Ġnearby": 6267,
      "Ġcauses": 6268,
      "ĠAfghanistan": 6269,
      "Ġunlikely": 6270,
      "gor": 6271,
      "ĠBlue": 6272,
      "Ġfish": 6273,
      "ĠLin": 6274,
      "Ġnarr": 6275,
      "Ġwrites": 6276,
      "ĠCNN": 6277,
      "irds": 6278,
      "ato": 6279,
      "ĠWhe": 6280,
      "Most": 6281,
      "Ġrein": 6282,
      "Ġcro": 6283,
      "Ġimmediate": 6284,
      "iable": 6285,
      "ĠRod": 6286,
      "ĠOF": 6287,
      "duc": 6288,
      "ĠWilliam": 6289,
      "Ġtweeted": 6290,
      "ĠiPhone": 6291,
      "Ġshif": 6292,
      "Ġmyster": 6293,
      "Ġsympt": 6294,
      "Ġing": 6295,
      "ĠFer": 6296,
      "lix": 6297,
      "ette": 6298,
      "Ġprovince": 6299,
      "Ġalt": 6300,
      "Ġargue": 6301,
      "Ġrealize": 6302,
      "onna": 6303,
      "Ġanywhere": 6304,
      "Ġimportance": 6305,
      "Ġcommitment": 6306,
      "Ġterrorist": 6307,
      "Ġartist": 6308,
      "Ġclients": 6309,
      "arters": 6310,
      "Ġadults": 6311,
      "illance": 6312,
      "Ġcert": 6313,
      "Ġapprox": 6314,
      "Ġ33": 6315,
      "Ġconsistent": 6316,
      "Ġaircraft": 6317,
      "zona": 6318,
      "Ġdesire": 6319,
      "ÃĤ": 6320,
      "amin": 6321,
      "Ġatmosp": 6322,
      "olve": 6323,
      "Like": 6324,
      "oming": 6325,
      "Ġpromise": 6326,
      "ĠDown": 6327,
      "Ġboss": 6328,
      "Ġguns": 6329,
      "Ġbare": 6330,
      "ĠSports": 6331,
      "Ġ]": 6332,
      "âĢĻ.": 6333,
      "Ġsurprised": 6334,
      "05": 6335,
      "Ġhousehold": 6336,
      "ĠIP": 6337,
      "Ġplane": 6338,
      "Ġfees": 6339,
      "Ġchart": 6340,
      "ĠServices": 6341,
      "Ġmotor": 6342,
      "Ġexamples": 6343,
      "uy": 6344,
      "Ġentered": 6345,
      "ĠMount": 6346,
      "rum": 6347,
      "65": 6348,
      "Ġacknowled": 6349,
      "Ġsuffering": 6350,
      "Ġefficient": 6351,
      "Ġregional": 6352,
      "01": 6353,
      "Ġdecre": 6354,
      "Ġdedicated": 6355,
      "Ġdetailed": 6356,
      "game": 6357,
      "otic": 6358,
      "En": 6359,
      "Ġshel": 6360,
      "Ġjoint": 6361,
      "Ġpushing": 6362,
      "Ġaf": 6363,
      "Ġholds": 6364,
      "Ġvolunte": 6365,
      "Ġsustain": 6366,
      "Ġhoping": 6367,
      "Ġinput": 6368,
      "break": 6369,
      "Ġcreative": 6370,
      "Ġdial": 6371,
      "Ġspons": 6372,
      "sex": 6373,
      "Ġbroadcast": 6374,
      "Ġclosely": 6375,
      "alty": 6376,
      "hips": 6377,
      "ĠElect": 6378,
      "ĠColorado": 6379,
      "ĠValley": 6380,
      "Ġreturns": 6381,
      "atell": 6382,
      "ĠAttorney": 6383,
      "Ġrow": 6384,
      "Ġnav": 6385,
      "ĠInstagram": 6386,
      "inem": 6387,
      "Ġbattery": 6388,
      "Ġ300": 6389,
      "Ġradical": 6390,
      "ĠTay": 6391,
      "UR": 6392,
      "Ġapproval": 6393,
      "Qu": 6394,
      "Ġcompetitive": 6395,
      "Ĥ¬": 6396,
      "Ġtradition": 6397,
      "ĠPhot": 6398,
      "ĠMax": 6399,
      "Ġbutton": 6400,
      "Ġtree": 6401,
      "ĠOnly": 6402,
      "ĠHouston": 6403,
      "Ġyounger": 6404,
      "Ġfewer": 6405,
      "Ġapplied": 6406,
      "ĠPri": 6407,
      "Ġsigning": 6408,
      "ueller": 6409,
      "ĠGi": 6410,
      "Ġhell": 6411,
      "Ġheads": 6412,
      "Ġcomfortable": 6413,
      "Ġmedic": 6414,
      "Ġremark": 6415,
      "ĠNetwork": 6416,
      "Ġlabel": 6417,
      "Despite": 6418,
      "Ġcombination": 6419,
      "Ġoutput": 6420,
      "woman": 6421,
      "Ġhur": 6422,
      "acle": 6423,
      "ĠAut": 6424,
      "Ġdownt": 6425,
      "Ġincor": 6426,
      "fortunately": 6427,
      "Ġsees": 6428,
      "arden": 6429,
      "han": 6430,
      "ician": 6431,
      "oked": 6432,
      "Ġfashion": 6433,
      "Ġstood": 6434,
      "Ġremote": 6435,
      "Ġexplore": 6436,
      "Ġharder": 6437,
      "Ġsho": 6438,
      "Ġ38": 6439,
      "Ġvirtual": 6440,
      "Ġboys": 6441,
      "IF": 6442,
      "awa": 6443,
      "Ġemotional": 6444,
      "Ġacting": 6445,
      "Ġheavily": 6446,
      "Ġclassic": 6447,
      "Ġenemy": 6448,
      "Ġabandon": 6449,
      "ystem": 6450,
      "Ġcircumstances": 6451,
      "mes": 6452,
      "Ġtotally": 6453,
      "ĠVol": 6454,
      "Ġbot": 6455,
      "Ġbright": 6456,
      "illy": 6457,
      "Te": 6458,
      "esome": 6459,
      "Ġflo": 6460,
      "Ġscored": 6461,
      "Ġallies": 6462,
      "Ġaccepted": 6463,
      "itarian": 6464,
      "ĠCle": 6465,
      "ĠDC": 6466,
      "31": 6467,
      "ĠYear": 6468,
      "Ġcontains": 6469,
      "iger": 6470,
      "Ġ34": 6471,
      "Ġcryptocurrency": 6472,
      "Ġrot": 6473,
      "stood": 6474,
      "Ġ37": 6475,
      "oma": 6476,
      "People": 6477,
      "Ġsav": 6478,
      "Ġreaders": 6479,
      "wan": 6480,
      "ogan": 6481,
      "Ġexciting": 6482,
      "ĠRon": 6483,
      "GBT": 6484,
      "Oh": 6485,
      "ĠIll": 6486,
      "Ġdistribution": 6487,
      "Ġwins": 6488,
      "ideo": 6489,
      "phy": 6490,
      "Ġexcellent": 6491,
      "Ġteachers": 6492,
      "Ġpip": 6493,
      "ĠStan": 6494,
      "Ġharass": 6495,
      "Ġembr": 6496,
      "Ġlie": 6497,
      "Ġsending": 6498,
      "Ġwave": 6499,
      "Ġshots": 6500,
      "Ġdiagn": 6501,
      "âĸĪ": 6502,
      "Yes": 6503,
      "west": 6504,
      "itals": 6505,
      "Ġhardware": 6506,
      "Ġlocations": 6507,
      "Ġrequests": 6508,
      "ican": 6509,
      "Ġske": 6510,
      "ĠWomen": 6511,
      "abb": 6512,
      "Ġtournament": 6513,
      "Ġvolume": 6514,
      "Also": 6515,
      "Ġcrash": 6516,
      "Ġdecline": 6517,
      "ĠColumb": 6518,
      "Ġwelcome": 6519,
      "efully": 6520,
      "hus": 6521,
      "Ġrelationships": 6522,
      "ĠMuslims": 6523,
      "Ġgoods": 6524,
      "achment": 6525,
      "Ġplatforms": 6526,
      "Ġlawmakers": 6527,
      "Ġcontroversial": 6528,
      "ĠItaly": 6529,
      "xy": 6530,
      "Ġbag": 6531,
      "Ġtom": 6532,
      "Ġ48": 6533,
      "Ġpure": 6534,
      "Ġsanctions": 6535,
      "uable": 6536,
      "Ġintention": 6537,
      "Ġmoral": 6538,
      "Ġblow": 6539,
      "greg": 6540,
      "ĠClub": 6541,
      "erate": 6542,
      "64": 6543,
      "Ġmir": 6544,
      "ĠLib": 6545,
      "Ġsuc": 6546,
      "Ġtemperature": 6547,
      "Ġliqu": 6548,
      "ĠRev": 6549,
      "Ġindustrial": 6550,
      "ĠAI": 6551,
      "Ġsnow": 6552,
      "ĠKenn": 6553,
      "Ġschedule": 6554,
      "irty": 6555,
      "Ġprohib": 6556,
      "ologist": 6557,
      "Ġserving": 6558,
      "Ġ1990": 6559,
      "Ġbegins": 6560,
      "ocket": 6561,
      "Ġrum": 6562,
      "Ġemails": 6563,
      "ĠTop": 6564,
      "Ġneither": 6565,
      "Ġpregn": 6566,
      "Ġagenda": 6567,
      "ĠLong": 6568,
      "Ġflu": 6569,
      "Per": 6570,
      "Ġclasses": 6571,
      "omin": 6572,
      "Ġoverwhel": 6573,
      "Ġfort": 6574,
      "ĠKen": 6575,
      "Ġseats": 6576,
      "tering": 6577,
      "owa": 6578,
      "def": 6579,
      "ĠEnergy": 6580,
      "ĠIts": 6581,
      "Ġcampus": 6582,
      "arity": 6583,
      "Ġdeals": 6584,
      "ĠHel": 6585,
      "Ġdeeply": 6586,
      "lo": 6587,
      "ĠFollow": 6588,
      "ĠBoy": 6589,
      "Ġexplan": 6590,
      "ĠDev": 6591,
      "Ġemployee": 6592,
      "Ġbon": 6593,
      "ĠAnother": 6594,
      "Ġscheme": 6595,
      "ĠRights": 6596,
      "Ġgrown": 6597,
      "Ġproperties": 6598,
      "Ġcarrying": 6599,
      "Ġmeat": 6600,
      "ĠWild": 6601,
      "ĠSar": 6602,
      "writ": 6603,
      "Donald": 6604,
      "Ġsupports": 6605,
      "va": 6606,
      "usal": 6607,
      "DS": 6608,
      "Ġalcohol": 6609,
      "isan": 6610,
      "ĠReport": 6611,
      "Ġreput": 6612,
      "ether": 6613,
      "DC": 6614,
      "edia": 6615,
      "Ġlibrary": 6616,
      "ĠEconom": 6617,
      "weight": 6618,
      "ĠSeattle": 6619,
      "ayers": 6620,
      "Ġimpe": 6621,
      "Ġempt": 6622,
      "ĠOrgan": 6623,
      "Ġpromised": 6624,
      "ĠJr": 6625,
      "Ġfairly": 6626,
      "Ġcycle": 6627,
      "etroit": 6628,
      "Ġobjects": 6629,
      "Ġcere": 6630,
      "Ġbug": 6631,
      "ĠSecond": 6632,
      "ati": 6633,
      "ĠBrook": 6634,
      "AG": 6635,
      "Ġ49": 6636,
      "Ġmainstream": 6637,
      "ĠArizona": 6638,
      "NC": 6639,
      "ĠAL": 6640,
      "cript": 6641,
      "Ġsquad": 6642,
      "Ġsubsequ": 6643,
      "Ġcommunication": 6644,
      "Ġmarried": 6645,
      "Ġtechnologies": 6646,
      "Ġmotion": 6647,
      "burg": 6648,
      "Ġcounsel": 6649,
      "axy": 6650,
      "ĠEr": 6651,
      "foot": 6652,
      "Ġformat": 6653,
      "Ġplastic": 6654,
      "Ġfunctions": 6655,
      "ĠMaybe": 6656,
      "Ġjournalists": 6657,
      "Ġopponent": 6658,
      "rome": 6659,
      "ĠPalestinian": 6660,
      "Ġdealing": 6661,
      "ĠDisney": 6662,
      "Ġearned": 6663,
      "ĠNY": 6664,
      "po": 6665,
      "Photo": 6666,
      "Ġphen": 6667,
      "Ġlaugh": 6668,
      "Ġsurrounding": 6669,
      "Ġtermin": 6670,
      "Ġhistorical": 6671,
      "Ġstruck": 6672,
      "ĠWat": 6673,
      "Ġwake": 6674,
      "Ġchairman": 6675,
      "Ġsentence": 6676,
      "Ġcomplaint": 6677,
      "Ġcheap": 6678,
      "Ġattempted": 6679,
      "Ġsucceed": 6680,
      "ĠSC": 6681,
      "ORE": 6682,
      "ittle": 6683,
      "ĠEnter": 6684,
      "zens": 6685,
      "Ġhat": 6686,
      "American": 6687,
      "Ġowned": 6688,
      "ĠEll": 6689,
      "Ġconvin": 6690,
      "hetic": 6691,
      "Ġcrypto": 6692,
      "Ġacts": 6693,
      "dro": 6694,
      "ĠJersey": 6695,
      "Ġcorrespond": 6696,
      "Ġkinds": 6697,
      "ĠAdmin": 6698,
      "Ġworried": 6699,
      "ĠABC": 6700,
      "ĠDi": 6701,
      "ĠKong": 6702,
      "ĠRight": 6703,
      "Ġprofit": 6704,
      "Ġvulnerable": 6705,
      "ometimes": 6706,
      "RC": 6707,
      "ĠDie": 6708,
      "Ġlikes": 6709,
      "ĠAnn": 6710,
      "Ġreward": 6711,
      "ĠBest": 6712,
      "Ġinvolving": 6713,
      "iques": 6714,
      "anes": 6715,
      "fire": 6716,
      "Ġimpressive": 6717,
      "ĠGar": 6718,
      "acc": 6719,
      "Ġanx": 6720,
      "Ġcontracts": 6721,
      "ĠGames": 6722,
      "Ġapolog": 6723,
      "ĠPy": 6724,
      "Ġsquare": 6725,
      "ĠKevin": 6726,
      "Ġmine": 6727,
      "Ġstring": 6728,
      "Ġdeveloper": 6729,
      "Ġextent": 6730,
      "ulous": 6731,
      "iciency": 6732,
      "Ġprofession": 6733,
      "Ġicon": 6734,
      "Ġcausing": 6735,
      "Ġtiny": 6736,
      "Ãĥ": 6737,
      "cers": 6738,
      "ĠDefense": 6739,
      "Ġpromote": 6740,
      "Ġfake": 6741,
      "ĠEach": 6742,
      "izz": 6743,
      "ora": 6744,
      "Ġcraft": 6745,
      "http": 6746,
      "igation": 6747,
      "ĠWalk": 6748,
      "Ġperformed": 6749,
      "Ġliterally": 6750,
      "Ġintent": 6751,
      "celer": 6752,
      "Ġplot": 6753,
      "Ġexposed": 6754,
      "Ġlies": 6755,
      "Ġmatches": 6756,
      "Ġbid": 6757,
      "Ġopposite": 6758,
      "amily": 6759,
      "Ġtrick": 6760,
      "Ġdivision": 6761,
      "Ġpassion": 6762,
      "Ġunus": 6763,
      "Ġmeetings": 6764,
      "gery": 6765,
      "erry": 6766,
      "ĠMueller": 6767,
      "ĠPS": 6768,
      "Ġtow": 6769,
      "Ġproperly": 6770,
      "Ġopponents": 6771,
      "ĠWars": 6772,
      "ĠCub": 6773,
      "Ġanonym": 6774,
      "Ġfuck": 6775,
      "Ġwatched": 6776,
      "Ġknowing": 6777,
      "Ġgap": 6778,
      "Ġflex": 6779,
      "Ġfundamental": 6780,
      "born": 6781,
      "ĠSwed": 6782,
      "ĠDiv": 6783,
      "ĠGlobal": 6784,
      "Ġcrazy": 6785,
      "Ġusual": 6786,
      "ĠCam": 6787,
      "dit": 6788,
      "ko": 6789,
      "acking": 6790,
      "Ġfasc": 6791,
      "Ġdiet": 6792,
      "pan": 6793,
      "Ġfranchise": 6794,
      "II": 6795,
      "ĠAsian": 6796,
      "ĠDavis": 6797,
      "Ġgang": 6798,
      "Ġmanner": 6799,
      "enez": 6800,
      "ĠAgency": 6801,
      "Ġartists": 6802,
      "afe": 6803,
      "Ġconspir": 6804,
      "Ġ2004": 6805,
      "iveness": 6806,
      "Ġsuicide": 6807,
      "ĠChild": 6808,
      "Ġproof": 6809,
      "Ġauthors": 6810,
      "ĠEric": 6811,
      "ĠInf": 6812,
      "igen": 6813,
      "ĠUt": 6814,
      "ĠHollywood": 6815,
      "Ġdefined": 6816,
      "Ġcoffee": 6817,
      "Ġclaiming": 6818,
      "cow": 6819,
      "avor": 6820,
      "Ġ75": 6821,
      "Ġcontributed": 6822,
      "Ġnarrative": 6823,
      "Ġbike": 6824,
      "sters": 6825,
      "uan": 6826,
      "ĠWay": 6827,
      "Ġmaximum": 6828,
      "Ġcounty": 6829,
      "ao": 6830,
      "Ġexistence": 6831,
      "isms": 6832,
      "owered": 6833,
      "Ġselection": 6834,
      "Ġdescribe": 6835,
      "Ġbasket": 6836,
      "May": 6837,
      "Ġphase": 6838,
      "Ġincredible": 6839,
      "ographic": 6840,
      "ĠGM": 6841,
      "Police": 6842,
      "ĠJordan": 6843,
      "uated": 6844,
      "Ġmagazine": 6845,
      "Ġmouth": 6846,
      "ĠHen": 6847,
      "ÃŃ": 6848,
      "Ġdatabase": 6849,
      "ĠTal": 6850,
      "Ġmistake": 6851,
      "ĠParliament": 6852,
      "ĠSign": 6853,
      "Ġbench": 6854,
      "ulture": 6855,
      "Ġencourage": 6856,
      "gorith": 6857,
      "Ġteacher": 6858,
      "ĠAuthor": 6859,
      "Ġextended": 6860,
      "Ġmayor": 6861,
      "Ġtransactions": 6862,
      "irms": 6863,
      "adel": 6864,
      "Ġwire": 6865,
      "Ġwage": 6866,
      "ĠMot": 6867,
      "kish": 6868,
      "Ġsomewhat": 6869,
      "enders": 6870,
      "ĠPolit": 6871,
      "Ġwinner": 6872,
      "Ġwalked": 6873,
      "Ġblame": 6874,
      "Ġputs": 6875,
      "Ġsurveillance": 6876,
      "Ġdepth": 6877,
      "Ġassistance": 6878,
      "Ġcrucial": 6879,
      "ĠBat": 6880,
      "Ġtruck": 6881,
      "Ġaside": 6882,
      "ĠMS": 6883,
      "asts": 6884,
      "Ġsongs": 6885,
      "Ġdesk": 6886,
      "ĠVan": 6887,
      "icken": 6888,
      "Ġthreatened": 6889,
      "Ġwithdraw": 6890,
      "boy": 6891,
      "Ġties": 6892,
      "ĠPR": 6893,
      "kel": 6894,
      "Ġrefugees": 6895,
      "ĠBusiness": 6896,
      "otal": 6897,
      "Ġpolls": 6898,
      "Ġurban": 6899,
      "Ġskill": 6900,
      "0000": 6901,
      "Ġamid": 6902,
      "Ġdu": 6903,
      "Ġfrequently": 6904,
      "pected": 6905,
      "ĠInvest": 6906,
      "ĠAdam": 6907,
      "Ġprofile": 6908,
      "regon": 6909,
      "Ġstrange": 6910,
      "Ġnorthern": 6911,
      "Ġsubsid": 6912,
      "ĠMic": 6913,
      "aze": 6914,
      "Ġwinter": 6915,
      "Ġattacked": 6916,
      "Ġdomin": 6917,
      "Ġpled": 6918,
      "Ġdelivery": 6919,
      "alian": 6920,
      "Ġheight": 6921,
      "Dr": 6922,
      "allas": 6923,
      "Ġterritory": 6924,
      "esc": 6925,
      "88": 6926,
      "Ġchampion": 6927,
      "Ġinspired": 6928,
      "Or": 6929,
      "list": 6930,
      "Ġcomprom": 6931,
      "Ġfounder": 6932,
      "Ġtopic": 6933,
      "ĠHun": 6934,
      "Ġretire": 6935,
      "rich": 6936,
      "Ġeating": 6937,
      "ali": 6938,
      "Ġcondem": 6939,
      "unning": 6940,
      "intend": 6941,
      "Ġexpression": 6942,
      "nic": 6943,
      "Ġdefeat": 6944,
      "Ġunknown": 6945,
      "Ġbatt": 6946,
      "ĠJews": 6947,
      "ĠAgain": 6948,
      "Ġregistered": 6949,
      "Ġdogs": 6950,
      "ĠSee": 6951,
      "Ġobtained": 6952,
      "Ġresistance": 6953,
      "mun": 6954,
      "Ġreferred": 6955,
      "PU": 6956,
      "lder": 6957,
      "luding": 6958,
      "Ġdiscover": 6959,
      "Ġalive": 6960,
      "Ġsouthern": 6961,
      "Ġegg": 6962,
      "Two": 6963,
      "Ġfolks": 6964,
      "Ġdry": 6965,
      "Ġsky": 6966,
      "Ġstudio": 6967,
      "Ġnoticed": 6968,
      "umber": 6969,
      "Ġring": 6970,
      "Ġhall": 6971,
      "ĠCast": 6972,
      "ĠStephen": 6973,
      "77": 6974,
      "obile": 6975,
      "Ġadm": 6976,
      "Ġprecise": 6977,
      "nam": 6978,
      "Ġadapt": 6979,
      "Inst": 6980,
      "flix": 6981,
      "ĠEnd": 6982,
      "Ġelectricity": 6983,
      "Ġspokesperson": 6984,
      "Ġsand": 6985,
      "Ġselected": 6986,
      "Once": 6987,
      "verty": 6988,
      "ĠLGBT": 6989,
      "Ġsimpl": 6990,
      "pool": 6991,
      "iffs": 6992,
      "ĠBarack": 6993,
      "hent": 6994,
      "Ġengage": 6995,
      "ĠMarket": 6996,
      "Mean": 6997,
      "Ġoblig": 6998,
      "Ġsweet": 6999,
      "sole": 7000,
      "Ġenable": 7001,
      "ĠWarren": 7002,
      "ĠNASA": 7003,
      "Ġcoalition": 7004,
      "rence": 7005,
      "ockey": 7006,
      "ĠFil": 7007,
      "ÃĥÃĤ": 7008,
      "Ġregularly": 7009,
      "idelines": 7010,
      "Ġevolution": 7011,
      "Ġlawyers": 7012,
      "gender": 7013,
      "Ġversions": 7014,
      "Ġactor": 7015,
      "ĠTest": 7016,
      "Ġgaming": 7017,
      "ĠLight": 7018,
      "Ġmetal": 7019,
      "ĠZeal": 7020,
      "Ġped": 7021,
      "ĠJava": 7022,
      "rors": 7023,
      "ĠYoung": 7024,
      "inson": 7025,
      "emen": 7026,
      "Ġlimits": 7027,
      "66": 7028,
      "ĠISIS": 7029,
      "Ġroster": 7030,
      "Ġsymptoms": 7031,
      "ĠLabor": 7032,
      "ĠGeorgia": 7033,
      "oster": 7034,
      "ugh": 7035,
      "ÃĥÃĤÃĥÃĤ": 7036,
      "Ġpoverty": 7037,
      "Ġphilosoph": 7038,
      "Ġ1980": 7039,
      "ĠHist": 7040,
      "Ġfixed": 7041,
      "%)": 7042,
      "Ġsymbol": 7043,
      "Fr": 7044,
      "ĠNBC": 7045,
      "Ġcontinuing": 7046,
      "ĠPan": 7047,
      "Ġdemands": 7048,
      "ĠIrish": 7049,
      "Ġuncertain": 7050,
      "Ġtrees": 7051,
      "Ġsister": 7052,
      "Ġtherap": 7053,
      "Ġloan": 7054,
      "Ġdesper": 7055,
      "Ġbear": 7056,
      "Ġfalling": 7057,
      "name": 7058,
      "uilding": 7059,
      "Ġfeedback": 7060,
      "oration": 7061,
      "Ġoutcome": 7062,
      "Ġprint": 7063,
      "ĠDetroit": 7064,
      "ĠCarl": 7065,
      "LC": 7066,
      "ĠIowa": 7067,
      "apse": 7068,
      "Ġreporter": 7069,
      "ĠDaniel": 7070,
      "ĠHong": 7071,
      "Ġlicense": 7072,
      "ns": 7073,
      "Ġ($": 7074,
      "pret": 7075,
      "Off": 7076,
      "utch": 7077,
      "Ġworldwide": 7078,
      "ĠNations": 7079,
      "Ġforth": 7080,
      "ĠLu": 7081,
      "Ġrealized": 7082,
      "Ġrape": 7083,
      "agan": 7084,
      "Any": 7085,
      "force": 7086,
      "anchester": 7087,
      "anish": 7088,
      "Ġvillage": 7089,
      "Ġbrowser": 7090,
      "Ġdisag": 7091,
      "ĠBrad": 7092,
      "Ġfifth": 7093,
      "Ġancient": 7094,
      "ĠWilson": 7095,
      "ellect": 7096,
      "Ġinstru": 7097,
      "Ġdress": 7098,
      "aser": 7099,
      "%.": 7100,
      "Ġcorruption": 7101,
      "ĠCredit": 7102,
      "âĢĻ,": 7103,
      "ĠKn": 7104,
      "Ġparking": 7105,
      "eping": 7106,
      "Ġdriven": 7107,
      "Ġnarrow": 7108,
      "Ġexhib": 7109,
      "rencies": 7110,
      "Ġreplaced": 7111,
      "Ġdrag": 7112,
      "ĠSk": 7113,
      "Ġchose": 7114,
      "ĠDam": 7115,
      "ĠForeign": 7116,
      "Ġtheme": 7117,
      "Ġrestrictions": 7118,
      "Ġanswers": 7119,
      "Ġestate": 7120,
      "Ġrecognize": 7121,
      "ĠMiller": 7122,
      "ked": 7123,
      "Ġassistant": 7124,
      "ria": 7125,
      "wart": 7126,
      "ĠCatholic": 7127,
      "ĠColl": 7128,
      "ĠVictor": 7129,
      "iser": 7130,
      "Ġaccurate": 7131,
      "Ġofficially": 7132,
      "ĠNorthern": 7133,
      "Ġchat": 7134,
      "ĠMen": 7135,
      "Ġanticip": 7136,
      "ĠArch": 7137,
      "ĠAR": 7138,
      "ĠWater": 7139,
      "Ġincredibly": 7140,
      "Ġpersonally": 7141,
      "Ġunderstood": 7142,
      "Ġideal": 7143,
      "Ġconfront": 7144,
      "Ġbills": 7145,
      "ĠTit": 7146,
      "Ġstronger": 7147,
      "Ġinformed": 7148,
      "ĠJo": 7149,
      "Ġcutting": 7150,
      "Ġconven": 7151,
      "59": 7152,
      "ii": 7153,
      "Ġrejected": 7154,
      "Ġlatter": 7155,
      "abama": 7156,
      "Ġcomponents": 7157,
      "vy": 7158,
      "ĠÐ": 7159,
      "iami": 7160,
      "Ġsample": 7161,
      "ĠId": 7162,
      "Ġcourts": 7163,
      "raid": 7164,
      "Ġcommunications": 7165,
      "hell": 7166,
      "ĠClass": 7167,
      "Ġregions": 7168,
      "Ġsuddenly": 7169,
      "Ġobserved": 7170,
      "ĠCall": 7171,
      "Ġfeatured": 7172,
      "bel": 7173,
      "Ġschol": 7174,
      "mo": 7175,
      "oric": 7176,
      "Ġrub": 7177,
      "Ġsole": 7178,
      "ĠVeg": 7179,
      "Ġsyn": 7180,
      "ipl": 7181,
      "Ġunemploy": 7182,
      "iro": 7183,
      "----------------": 7184,
      "Ġpal": 7185,
      "ocation": 7186,
      "Ġkeeps": 7187,
      "Ġsolve": 7188,
      "Ġautomatically": 7189,
      "sea": 7190,
      "ĠReal": 7191,
      "Ġrecovery": 7192,
      "ĠBell": 7193,
      "ĠOnt": 7194,
      "Ġobst": 7195,
      "aug": 7196,
      "ĠCIA": 7197,
      "Ġreturning": 7198,
      "Ġrus": 7199,
      "Int": 7200,
      "ĠJesus": 7201,
      "Ġcritics": 7202,
      "Ġparam": 7203,
      "iki": 7204,
      "stone": 7205,
      "utral": 7206,
      "Ġpurposes": 7207,
      "Ġstrongly": 7208,
      "ceived": 7209,
      "Ġchances": 7210,
      "ĠDNA": 7211,
      "ĠBol": 7212,
      "ĠZealand": 7213,
      "ĠJosh": 7214,
      "Ġoperate": 7215,
      "otten": 7216,
      "John": 7217,
      "ĠCompany": 7218,
      "bar": 7219,
      "inations": 7220,
      "Ġconstit": 7221,
      "Ġruled": 7222,
      "ĠSov": 7223,
      "Rel": 7224,
      "Ġending": 7225,
      "Ġemployment": 7226,
      "Ob": 7227,
      "ads": 7228,
      "earing": 7229,
      "yr": 7230,
      "ta": 7231,
      "enezuel": 7232,
      "Meanwhile": 7233,
      "Ġworker": 7234,
      "ĠLand": 7235,
      "kay": 7236,
      "Ġapproximately": 7237,
      "Pr": 7238,
      "Ġestimates": 7239,
      "owed": 7240,
      "Ġaimed": 7241,
      "Ġgro": 7242,
      "Ġalgorith": 7243,
      "Ġsomebody": 7244,
      "Ġgenerate": 7245,
      "Ġpriority": 7246,
      "Ġsatell": 7247,
      "Ġanyway": 7248,
      "idency": 7249,
      "ĠDar": 7250,
      "Ġnomine": 7251,
      "Ġempty": 7252,
      "Ġbunch": 7253,
      "ĠLove": 7254,
      "Ġdozen": 7255,
      "Ġfinance": 7256,
      "Ġnewly": 7257,
      "osis": 7258,
      "weet": 7259,
      "iments": 7260,
      "Ġconstantly": 7261,
      "Ġrival": 7262,
      "ĠDespite": 7263,
      "era": 7264,
      "Ġveteran": 7265,
      "Ġdirected": 7266,
      "Ġticket": 7267,
      "Ġfold": 7268,
      "Ġcontrolled": 7269,
      "Ġslowly": 7270,
      "acked": 7271,
      "ensity": 7272,
      "sm": 7273,
      "ĠSpecial": 7274,
      "ker": 7275,
      "opy": 7276,
      "Ġcategory": 7277,
      "Ġapartment": 7278,
      "Ġsup": 7279,
      "ĠCat": 7280,
      "ĠIranian": 7281,
      "ums": 7282,
      "Ġphenomen": 7283,
      "fast": 7284,
      "iry": 7285,
      "Ġencoun": 7286,
      "Ġextensive": 7287,
      "lock": 7288,
      "Ġoccasion": 7289,
      "Ġ2003": 7290,
      "Ġuniverse": 7291,
      "found": 7292,
      "Ġstable": 7293,
      "Ġaudio": 7294,
      "Ġtort": 7295,
      "Ġtied": 7296,
      "Ġamounts": 7297,
      "42": 7298,
      "ifications": 7299,
      "Ġsomehow": 7300,
      "OD": 7301,
      "Ġconver": 7302,
      "ĠIT": 7303,
      "Ġgotten": 7304,
      "300": 7305,
      "Ġhits": 7306,
      "Ġtank": 7307,
      "!\"": 7308,
      "Ġchoices": 7309,
      "igg": 7310,
      "Ġassume": 7311,
      "ĠArabia": 7312,
      "Ġdeleg": 7313,
      "ĠRub": 7314,
      "Ġnegotiations": 7315,
      "Ġaspects": 7316,
      "Ġdestroyed": 7317,
      "ĠProte": 7318,
      "ĠTaylor": 7319,
      "mont": 7320,
      "Ġwest": 7321,
      "Ġformed": 7322,
      "Ġterrorism": 7323,
      "asters": 7324,
      "Ġestablish": 7325,
      "ĠAcadem": 7326,
      "igure": 7327,
      "Ġstuck": 7328,
      "Ġanymore": 7329,
      "Ġcomparison": 7330,
      "',": 7331,
      "Ġraising": 7332,
      "MS": 7333,
      "Ġconcluded": 7334,
      "Ġble": 7335,
      "alo": 7336,
      "ixt": 7337,
      "Ġcompens": 7338,
      "Ġpand": 7339,
      "Ġfemin": 7340,
      "alle": 7341,
      "ml": 7342,
      "Ġsomewhere": 7343,
      "ĠDevelopment": 7344,
      "ĠHarris": 7345,
      "ĠAFP": 7346,
      "ĠCentre": 7347,
      "CA": 7348,
      "ĠBowl": 7349,
      "ĠMoscow": 7350,
      "Ġpace": 7351,
      "Ġjournalist": 7352,
      "ĠBrian": 7353,
      "Ġprotocol": 7354,
      "ĠPolicy": 7355,
      "ĠProgram": 7356,
      "Ġ39": 7357,
      "ĠNHL": 7358,
      "Ġcompre": 7359,
      "Ġaggressive": 7360,
      "Ġvaluable": 7361,
      "ĠEduc": 7362,
      "Ġfinds": 7363,
      "ĠThanks": 7364,
      "Ġspin": 7365,
      "Ġelsewhere": 7366,
      "Ġracist": 7367,
      "Ġconstant": 7368,
      "Ġfarmers": 7369,
      "Ġdefence": 7370,
      "Ġaffili": 7371,
      "ĠNight": 7372,
      "ura": 7373,
      "</": 7374,
      "Ġunp": 7375,
      "Ġ2001": 7376,
      "ĠCross": 7377,
      "Ġtypical": 7378,
      "icket": 7379,
      "ĠKelly": 7380,
      "azi": 7381,
      "ems": 7382,
      "Ġhistoric": 7383,
      "Ġhonor": 7384,
      "Ġreasonable": 7385,
      "Ġnobody": 7386,
      "Ġsituations": 7387,
      "Ġfirms": 7388,
      "UN": 7389,
      "ĠFour": 7390,
      "aire": 7391,
      "Ġextension": 7392,
      "hony": 7393,
      "ĠThough": 7394,
      "ĠWhere": 7395,
      "ĠLoading": 7396,
      "ĠSn": 7397,
      "Ġstretch": 7398,
      "Ġprocesses": 7399,
      "Ġperfectly": 7400,
      "ĠNick": 7401,
      "Ġmurd": 7402,
      "Ġroutine": 7403,
      "star": 7404,
      "Ġchosen": 7405,
      "Today": 7406,
      "ĠPay": 7407,
      "ĠView": 7408,
      "ĠNation": 7409,
      "Ġoverse": 7410,
      "43": 7411,
      "Ġillustr": 7412,
      "Ġsuccessfully": 7413,
      "Ġstead": 7414,
      "Ġscenario": 7415,
      "Ġcyber": 7416,
      "ĠVR": 7417,
      "Ġeast": 7418,
      "imp": 7419,
      "ĠBernie": 7420,
      "ĠMoh": 7421,
      "Ġmining": 7422,
      "ship": 7423,
      "ĠSouthern": 7424,
      "Ġsight": 7425,
      "Ġpersonnel": 7426,
      "Ġengaged": 7427,
      "Ġfootage": 7428,
      "Ġtackle": 7429,
      "Ġhouses": 7430,
      "Ġpenalty": 7431,
      "Ġenthus": 7432,
      "Ġemerged": 7433,
      "AY": 7434,
      "Ġweird": 7435,
      "ĠPremier": 7436,
      "Ġatmosphere": 7437,
      "ĠLord": 7438,
      "inity": 7439,
      "Ġexpectations": 7440,
      "Ġcomplicated": 7441,
      "ĠOregon": 7442,
      "ref": 7443,
      "Ġdozens": 7444,
      "Ġpermission": 7445,
      "Ġstruggling": 7446,
      "Sec": 7447,
      "Me": 7448,
      "pes": 7449,
      "Ġblocks": 7450,
      "Ġescape": 7451,
      "EP": 7452,
      "ĠStand": 7453,
      "chers": 7454,
      "Ġextract": 7455,
      "ĠSociety": 7456,
      "Because": 7457,
      "mod": 7458,
      "Ġmerely": 7459,
      "Ġarguments": 7460,
      "Ġdrawn": 7461,
      "aron": 7462,
      "Ġwid": 7463,
      "Ġillness": 7464,
      "Ġfields": 7465,
      "ĠFood": 7466,
      "print": 7467,
      "Ġrelief": 7468,
      "abinet": 7469,
      "ĠDun": 7470,
      "ĠLew": 7471,
      "Ġmanip": 7472,
      "ĠTes": 7473,
      "08": 7474,
      "Ġparticipate": 7475,
      "ĠTurn": 7476,
      "Com": 7477,
      "ĠCharles": 7478,
      "ĠSea": 7479,
      "ilarly": 7480,
      "ĠIns": 7481,
      "Ġairport": 7482,
      "ĠCamer": 7483,
      "prise": 7484,
      "Ġcontrols": 7485,
      "Ġbanned": 7486,
      "nesota": 7487,
      "Ġboot": 7488,
      "Ġequival": 7489,
      "ĠMayor": 7490,
      "sell": 7491,
      "ĠDallas": 7492,
      "image": 7493,
      "Ġretain": 7494,
      "Ġthread": 7495,
      "Ġking": 7496,
      "Ġpermanent": 7497,
      "rary": 7498,
      "ĠChampionship": 7499,
      "Ġgranted": 7500,
      "rently": 7501,
      "arry": 7502,
      "essed": 7503,
      "scape": 7504,
      "Ġchampionship": 7505,
      "Ġbacked": 7506,
      "Ġchallenging": 7507,
      "ĠLook": 7508,
      "ĠAlabama": 7509,
      "Ġsurgery": 7510,
      "Ġadmit": 7511,
      "Ġindex": 7512,
      "Ġexception": 7513,
      "ĠMah": 7514,
      "adelph": 7515,
      "uine": 7516,
      "ĠCare": 7517,
      "ĠManchester": 7518,
      "ĠScotland": 7519,
      "UL": 7520,
      "Ġnut": 7521,
      "Ġcollected": 7522,
      "Ġcaptured": 7523,
      "Ġads": 7524,
      "ules": 7525,
      "Ġutil": 7526,
      "Ġvisited": 7527,
      "Ġtoken": 7528,
      "ciples": 7529,
      "Ġdollar": 7530,
      "Ġgenerated": 7531,
      "Ġregardless": 7532,
      "Ġgift": 7533,
      "ashes": 7534,
      "Ġ55": 7535,
      "thew": 7536,
      "ĠCoast": 7537,
      "Ġgrant": 7538,
      "Ġelite": 7539,
      "Ġphones": 7540,
      "inding": 7541,
      "Ġexposure": 7542,
      "ĠHot": 7543,
      "Ġspark": 7544,
      "Ġacceler": 7545,
      "Ġsurvive": 7546,
      "eries": 7547,
      "Ġkil": 7548,
      "Ġannounce": 7549,
      "Ġinnoc": 7550,
      "you": 7551,
      "ijing": 7552,
      "Ġprivile": 7553,
      "bn": 7554,
      "cus": 7555,
      "Ġincent": 7556,
      "eland": 7557,
      "Ġangry": 7558,
      "Ġterrible": 7559,
      "Ġfee": 7560,
      "erences": 7561,
      "profit": 7562,
      "ĠBas": 7563,
      "Ġreputation": 7564,
      "raph": 7565,
      "ĠCome": 7566,
      "ĠTake": 7567,
      "Ġbrut": 7568,
      "orne": 7569,
      "Ġbusy": 7570,
      "ĠOld": 7571,
      "Ġscenes": 7572,
      "Ġcomponent": 7573,
      "ĠCruz": 7574,
      "Ġattended": 7575,
      "Ðµ": 7576,
      "ĠVenezuel": 7577,
      "Ġpasses": 7578,
      "09": 7579,
      "aun": 7580,
      "ĠMiami": 7581,
      "Ġagric": 7582,
      "ĠESP": 7583,
      "Ġflying": 7584,
      "Ġimper": 7585,
      "SC": 7586,
      "ĠMinistry": 7587,
      "Ġconsumption": 7588,
      "adelphia": 7589,
      "Ġdefinition": 7590,
      "ĠAh": 7591,
      "Ġbehalf": 7592,
      "Ġtur": 7593,
      "67": 7594,
      "Ġaccus": 7595,
      "iana": 7596,
      "Ġmixed": 7597,
      "Ġracial": 7598,
      "68": 7599,
      "ĠSteven": 7600,
      "ĠFoot": 7601,
      "icer": 7602,
      "otes": 7603,
      "Ġhabit": 7604,
      "BO": 7605,
      "Ġgod": 7606,
      "ĠRog": 7607,
      "Ġawesome": 7608,
      "rete": 7609,
      "engers": 7610,
      "Ġstab": 7611,
      "da": 7612,
      "orted": 7613,
      "Ġdepending": 7614,
      "Ġdisaster": 7615,
      "ĠGall": 7616,
      "osystem": 7617,
      "Ġmachines": 7618,
      "Ġdrinking": 7619,
      "58": 7620,
      "Ġ42": 7621,
      ".[": 7622,
      "Ġcompete": 7623,
      "Ġrepresented": 7624,
      "rep": 7625,
      "ĠPacific": 7626,
      "Ġextrem": 7627,
      "Ġentering": 7628,
      "ĠRoman": 7629,
      "Ġdeputy": 7630,
      "esy": 7631,
      "41": 7632,
      "Ġpin": 7633,
      "ĠFC": 7634,
      "Ġrig": 7635,
      "Ġunclear": 7636,
      "Ġinstalled": 7637,
      "ĠCH": 7638,
      "avan": 7639,
      "Ġprominent": 7640,
      "making": 7641,
      "Ġimplementation": 7642,
      "Ġmanufacturing": 7643,
      "ĠSpain": 7644,
      "Ġsignal": 7645,
      "ĠTurkish": 7646,
      "ĠFund": 7647,
      "57": 7648,
      "ãĤ": 7649,
      "ĠSpanish": 7650,
      "ĠNetflix": 7651,
      "iscons": 7652,
      "Ġcapture": 7653,
      "fall": 7654,
      "Ġrely": 7655,
      "Ġinspir": 7656,
      "Ġstake": 7657,
      "ibilities": 7658,
      "Ġshortly": 7659,
      "ĠâĢĻ": 7660,
      "Ġexcess": 7661,
      "isconsin": 7662,
      "Ġexists": 7663,
      "ĠLive": 7664,
      "Ġpilot": 7665,
      "Ġconclusion": 7666,
      "Ġcha": 7667,
      "Che": 7668,
      "Ã³": 7669,
      "iscal": 7670,
      "Ġprogressive": 7671,
      "Ġinvestigate": 7672,
      "Ġelig": 7673,
      "Ġplug": 7674,
      "ĠConstitution": 7675,
      "Ġpaint": 7676,
      "Ġdict": 7677,
      "ĠIntell": 7678,
      "ĠSenator": 7679,
      "iy": 7680,
      "Ġroot": 7681,
      "Those": 7682,
      "Ġfighters": 7683,
      "Ġproved": 7684,
      "rell": 7685,
      "apes": 7686,
      "Ġcameras": 7687,
      "Ġprimarily": 7688,
      "ĠSP": 7689,
      "Ġdeck": 7690,
      "ĠData": 7691,
      "Ġrating": 7692,
      "ĠBru": 7693,
      "Ġhomeless": 7694,
      "rators": 7695,
      "zy": 7696,
      "ĠReview": 7697,
      "world": 7698,
      "ĠOper": 7699,
      "orough": 7700,
      "Ġprepare": 7701,
      "ĠJudge": 7702,
      "Ġdowntown": 7703,
      "dr": 7704,
      "Ġ\\": 7705,
      "Ġresulting": 7706,
      "anny": 7707,
      "Ġduty": 7708,
      "ĠGov": 7709,
      "Ġstim": 7710,
      "dis": 7711,
      "Ġintense": 7712,
      "Ġtitles": 7713,
      "ĠSeries": 7714,
      "isting": 7715,
      "front": 7716,
      "Ġacademic": 7717,
      "Ġven": 7718,
      "away": 7719,
      "ĠItalian": 7720,
      "Ġevil": 7721,
      "ba": 7722,
      "Ġintellect": 7723,
      "ilton": 7724,
      "ĠMcG": 7725,
      "Ġdegrees": 7726,
      "viously": 7727,
      "Ġmarked": 7728,
      "Ġdevast": 7729,
      "Ġtransaction": 7730,
      "ependent": 7731,
      "Ġgonna": 7732,
      "Ġhidden": 7733,
      "xual": 7734,
      "Ġrecip": 7735,
      "Ġ65": 7736,
      "========": 7737,
      "Ġvisible": 7738,
      "letter": 7739,
      "bal": 7740,
      "ĠDark": 7741,
      "Ġlosses": 7742,
      "07": 7743,
      "ĠON": 7744,
      "ĠTw": 7745,
      "400": 7746,
      "ĠTem": 7747,
      "amsung": 7748,
      "Ġprocessing": 7749,
      "dem": 7750,
      "ĠKent": 7751,
      "ĠSoviet": 7752,
      "Ġafraid": 7753,
      "etary": 7754,
      "ĠAsh": 7755,
      "Ġeverywhere": 7756,
      "Ġadvertising": 7757,
      "inder": 7758,
      "Ġsoul": 7759,
      "Ġcited": 7760,
      "athered": 7761,
      "iform": 7762,
      "ogether": 7763,
      "Ġtroub": 7764,
      "ĠBull": 7765,
      "Ġwarming": 7766,
      "Ġpropag": 7767,
      "portion": 7768,
      "ML": 7769,
      "Ġminority": 7770,
      "bro": 7771,
      "pread": 7772,
      "everal": 7773,
      "aching": 7774,
      "Ġtestim": 7775,
      "Ġdoors": 7776,
      "style": 7777,
      "ĠDead": 7778,
      "ĠLo": 7779,
      "Ġcolon": 7780,
      "Ġrecon": 7781,
      "Ġhel": 7782,
      "Ġstrict": 7783,
      "Ġinvestigating": 7784,
      "Ġorganized": 7785,
      "ĠStill": 7786,
      "Ġdistinct": 7787,
      "Ġmail": 7788,
      "Facebook": 7789,
      "ĠTony": 7790,
      "Ġgall": 7791,
      "aturally": 7792,
      "Ġinitiative": 7793,
      "Ġ400": 7794,
      "icking": 7795,
      "interest": 7796,
      "Ġcampaigns": 7797,
      "Ġprogramming": 7798,
      "ĠVis": 7799,
      "Ġcust": 7800,
      "Ġwebsites": 7801,
      "ifies": 7802,
      "ATE": 7803,
      "Ġcreates": 7804,
      "obs": 7805,
      "Before": 7806,
      "ĠMinnesota": 7807,
      "ĠNic": 7808,
      "athy": 7809,
      "Ġenemies": 7810,
      "ima": 7811,
      "bell": 7812,
      "ĠWH": 7813,
      "Ġresign": 7814,
      "Ġru": 7815,
      "Ġrose": 7816,
      "Ġ150": 7817,
      "idespread": 7818,
      "ospitals": 7819,
      "Ġpartnership": 7820,
      "Ġupper": 7821,
      "Ġtall": 7822,
      "Ġgenuine": 7823,
      "Ġengineering": 7824,
      "Ġcontem": 7825,
      "ãĥ": 7826,
      "Ġcance": 7827,
      "Ġconvicted": 7828,
      "ĠCivil": 7829,
      "osit": 7830,
      "ĠBefore": 7831,
      "ĠAli": 7832,
      "riers": 7833,
      "ĠCommunity": 7834,
      "uma": 7835,
      "Ġpounds": 7836,
      "Ġconspiracy": 7837,
      "Ġelev": 7838,
      "Ġproven": 7839,
      "mal": 7840,
      "Ġtaste": 7841,
      "Ġtickets": 7842,
      "abeth": 7843,
      "aning": 7844,
      "ĠBeach": 7845,
      "Ġexplanation": 7846,
      "Ġtrib": 7847,
      "Ġtracks": 7848,
      "ĠMedical": 7849,
      "ĠAbout": 7850,
      "ĠEs": 7851,
      "Ġshock": 7852,
      "Ġrecover": 7853,
      "log": 7854,
      "quarters": 7855,
      "Ġho": 7856,
      "Ġtechniques": 7857,
      "Ġavo": 7858,
      "Ġunusual": 7859,
      "Ġarrange": 7860,
      "ĠMoore": 7861,
      "Ġpossession": 7862,
      "EA": 7863,
      "Ġlaid": 7864,
      "ĠHom": 7865,
      "lls": 7866,
      "04": 7867,
      "Ġenjoyed": 7868,
      "Ġwestern": 7869,
      "Ġhadn": 7870,
      "Ġframework": 7871,
      "Ġinev": 7872,
      "usive": 7873,
      "Ġbaseball": 7874,
      "Ġoutr": 7875,
      "Ġjoining": 7876,
      "Ġunw": 7877,
      "Ġhealthcare": 7878,
      "Ġvital": 7879,
      "Ġstations": 7880,
      "ĠAvenue": 7881,
      "ĠMid": 7882,
      "ĠGuardian": 7883,
      "mate": 7884,
      "ĠFort": 7885,
      "Ġmedium": 7886,
      "âĸĪâĸĪ": 7887,
      "Ġappoint": 7888,
      "Ġstrikes": 7889,
      "Ġproviders": 7890,
      "lad": 7891,
      "ĠVegas": 7892,
      "Ġexternal": 7893,
      "Ġexplicit": 7894,
      "Ġneighbour": 7895,
      "ĠPhiladelphia": 7896,
      "Ġresulted": 7897,
      "Ġrural": 7898,
      "06": 7899,
      "Ġoutbreak": 7900,
      "Ġrecording": 7901,
      "Ġvisitors": 7902,
      "abs": 7903,
      "Ġfunny": 7904,
      "ĠMajor": 7905,
      "Ġteaching": 7906,
      "lers": 7907,
      "anna": 7908,
      "ĠAPI": 7909,
      "Ġaccomp": 7910,
      "Ġrecognition": 7911,
      "Ġmigrants": 7912,
      "Ġremarks": 7913,
      "Ġpodcast": 7914,
      "ĠAS": 7915,
      "Ġletters": 7916,
      "Ġexclusive": 7917,
      "Ġlights": 7918,
      "istent": 7919,
      "change": 7920,
      "post": 7921,
      "Ġtar": 7922,
      "Ġfoundation": 7923,
      "Ġbes": 7924,
      "Ġbasketball": 7925,
      "erest": 7926,
      "Ġscoring": 7927,
      "Ġsufficient": 7928,
      "Ġdiscipl": 7929,
      "ĠBloom": 7930,
      "ĠFre": 7931,
      "osa": 7932,
      "ĠAmendment": 7933,
      "Ġwonderful": 7934,
      "Ġoccas": 7935,
      "Ġfeelings": 7936,
      "ĠKey": 7937,
      "Ġinterviews": 7938,
      "Ġpatterns": 7939,
      "ĠSanta": 7940,
      "Ġ2002": 7941,
      "ĠDiego": 7942,
      "Ġbra": 7943,
      "inking": 7944,
      "Ġ1970": 7945,
      "ulating": 7946,
      "ĠBeijing": 7947,
      "Ġportion": 7948,
      "Ġreducing": 7949,
      "Ġcup": 7950,
      "ĠHor": 7951,
      "Ġenorm": 7952,
      "Ġsynt": 7953,
      "ĠJoseph": 7954,
      "Ġinteract": 7955,
      "ĠAND": 7956,
      "Ġconscious": 7957,
      "Ġstrategic": 7958,
      "Ġtaxp": 7959,
      "cription": 7960,
      "Ġpump": 7961,
      "Ġdescribes": 7962,
      "TR": 7963,
      "Rec": 7964,
      "ĠJac": 7965,
      "Ġsuspended": 7966,
      "Ġveget": 7967,
      "uer": 7968,
      "ĠWisconsin": 7969,
      "umer": 7970,
      "Ġrepresentative": 7971,
      "Ġwriters": 7972,
      "sels": 7973,
      "Ġformal": 7974,
      "Ġbridge": 7975,
      "Ġmainly": 7976,
      "Ġtag": 7977,
      "Mar": 7978,
      "ĠEducation": 7979,
      "ĠBlock": 7980,
      "Ġunex": 7981,
      "Ġrapidly": 7982,
      "Col": 7983,
      "Ġscandal": 7984,
      "ĠLy": 7985,
      "Ð¾": 7986,
      "ĠESPN": 7987,
      "ĠAdministration": 7988,
      "Ġphr": 7989,
      "56": 7990,
      "ĠHas": 7991,
      "Ġtip": 7992,
      "Ġstreaming": 7993,
      "Ġprinciples": 7994,
      "Ġinvestigators": 7995,
      "Reuters": 7996,
      "itchen": 7997,
      "ilipp": 7998,
      "ĠOak": 7999,
      "ecut": 8000,
      "Ġdemocratic": 8001,
      "ĠHu": 8002,
      "ĠKurd": 8003,
      "Ġecosystem": 8004,
      "ĠHospital": 8005,
      "ĠNext": 8006,
      "Ġmarch": 8007,
      "etime": 8008,
      "Ġroles": 8009,
      "ĠOs": 8010,
      "ĠDig": 8011,
      "page": 8012,
      "cles": 8013,
      "this": 8014,
      "%,": 8015,
      "Ġinterface": 8016,
      "Ġuncom": 8017,
      "Ġholiday": 8018,
      "Ġflaw": 8019,
      "Ġdinner": 8020,
      "Ġaver": 8021,
      "Ġviewers": 8022,
      "Ġsensitive": 8023,
      "Ġbehaviour": 8024,
      "Ġblind": 8025,
      "Ġsaved": 8026,
      "Ġwidespread": 8027,
      "ounced": 8028,
      "Ġdisrupt": 8029,
      "Ġfought": 8030,
      "igenous": 8031,
      "ĠThree": 8032,
      "Ġmagic": 8033,
      "Ġclubs": 8034,
      "ho": 8035,
      "elect": 8036,
      "Ġactivist": 8037,
      "Ġimplemented": 8038,
      "then": 8039,
      "Ġreaching": 8040,
      "Ġsuggesting": 8041,
      "Ġcomplaints": 8042,
      "03": 8043,
      "ĠOS": 8044,
      "ĠOK": 8045,
      "gener": 8046,
      "Ġpit": 8047,
      "aka": 8048,
      "Ġ47": 8049,
      "Ġtaught": 8050,
      "ĠDub": 8051,
      "Ġtox": 8052,
      "Ġdiscussions": 8053,
      "Ġiron": 8054,
      "ndum": 8055,
      "ĠEastern": 8056,
      "Ġspr": 8057,
      "Ġreduction": 8058,
      "ĠLinux": 8059,
      "Ġproducer": 8060,
      "Ġestablishment": 8061,
      "Under": 8062,
      "uce": 8063,
      "Ġ64": 8064,
      "ĠCore": 8065,
      "Ġcomprehens": 8066,
      "ĠViet": 8067,
      "tes": 8068,
      "lvan": 8069,
      "Ġheaded": 8070,
      "ĠAcademy": 8071,
      "Ġloud": 8072,
      "Ġocean": 8073,
      "02": 8074,
      "Ġcontribute": 8075,
      "Ġyield": 8076,
      "Ġequivalent": 8077,
      "Ġporn": 8078,
      "aska": 8079,
      "Ġgained": 8080,
      "thereum": 8081,
      "ja": 8082,
      "ĠAction": 8083,
      "cr": 8084,
      "ĠOntario": 8085,
      "olen": 8086,
      "iti": 8087,
      "Ġdiscrimination": 8088,
      "ĠPack": 8089,
      "Ġupset": 8090,
      "Ġthin": 8091,
      "Ġfault": 8092,
      "burgh": 8093,
      "ĠNC": 8094,
      "Ġprosecutors": 8095,
      "Ġsettings": 8096,
      "HA": 8097,
      "iversary": 8098,
      "Ġreviews": 8099,
      "amber": 8100,
      "ĠMars": 8101,
      "Ġtouchdown": 8102,
      "ĠPel": 8103,
      "lessly": 8104,
      "ĠConservative": 8105,
      "Ġdrawing": 8106,
      "izabeth": 8107,
      "Ġscreens": 8108,
      "Ġhitting": 8109,
      "Ġfears": 8110,
      "Ġju": 8111,
      "Ġrecommended": 8112,
      "Ġhole": 8113,
      "ĠJason": 8114,
      "JP": 8115,
      "Ġspaces": 8116,
      "Ġliquid": 8117,
      "lan": 8118,
      "gun": 8119,
      "Ġadopted": 8120,
      "ĠCB": 8121,
      "Ġbath": 8122,
      "Ġprosec": 8123,
      "Ġsmooth": 8124,
      "Ġlicens": 8125,
      "Ġtoler": 8126,
      "Ġforever": 8127,
      "Ġhired": 8128,
      "test": 8129,
      "ĠOl": 8130,
      "ĠChair": 8131,
      "eman": 8132,
      "ouver": 8133,
      "atus": 8134,
      "ĠUFC": 8135,
      "ĠConf": 8136,
      "Ġfailing": 8137,
      "Ġdeliber": 8138,
      "Ġwing": 8139,
      "ĠRet": 8140,
      "Ġfoss": 8141,
      "Ġtemporary": 8142,
      "Ġsharp": 8143,
      "Ġ44": 8144,
      "Ġforest": 8145,
      "Ġbom": 8146,
      "Ġimprovements": 8147,
      "iler": 8148,
      "Ġrarely": 8149,
      "ĠBang": 8150,
      "Ġsacr": 8151,
      "ĠBry": 8152,
      "Ġdeeper": 8153,
      "Ġroads": 8154,
      "Ġdistr": 8155,
      "Ġpandemic": 8156,
      "ĠConference": 8157,
      "ikes": 8158,
      "Ġlistening": 8159,
      "ĠGreg": 8160,
      "ĠAnthony": 8161,
      "ammed": 8162,
      "Ġrecru": 8163,
      "Ġauthent": 8164,
      "ĠPA": 8165,
      "ĠAcc": 8166,
      "Mc": 8167,
      "ĠIntelligence": 8168,
      "aying": 8169,
      "PC": 8170,
      ".-": 8171,
      "month": 8172,
      "Ġdeserv": 8173,
      "ĠAC": 8174,
      "owing": 8175,
      "Ġownership": 8176,
      "Ġheading": 8177,
      "ĠSeason": 8178,
      "ĠMir": 8179,
      "Ġloyal": 8180,
      "apore": 8181,
      "uties": 8182,
      "ye": 8183,
      "Ġballot": 8184,
      "Ġlegend": 8185,
      "Ġmyth": 8186,
      "Ġreferring": 8187,
      "etts": 8188,
      "ĠLind": 8189,
      "ĠAlbert": 8190,
      "Ġconversations": 8191,
      "ĠRay": 8192,
      "Ġachieved": 8193,
      "assador": 8194,
      "itionally": 8195,
      "Ġsuspected": 8196,
      "azz": 8197,
      "Ġphotograph": 8198,
      "Ġoverwhelming": 8199,
      "Ġurged": 8200,
      "opher": 8201,
      "âĢĭ": 8202,
      "Ġinterpret": 8203,
      "98": 8204,
      "âĢĶâĢĶâĢĶâĢĶ": 8205,
      "ĠPen": 8206,
      "Ġentit": 8207,
      "ylum": 8208,
      "ĠControl": 8209,
      "car": 8210,
      "Ġmovements": 8211,
      "oval": 8212,
      "iner": 8213,
      "ancouver": 8214,
      "rator": 8215,
      "ĠCirc": 8216,
      "ĠMu": 8217,
      "ĠDid": 8218,
      "ommod": 8219,
      "rav": 8220,
      "uper": 8221,
      "GO": 8222,
      "Ġbegun": 8223,
      "sylvan": 8224,
      "ĠNAT": 8225,
      "Ġfinger": 8226,
      "Ġpeak": 8227,
      "ĠCBS": 8228,
      "Ġburd": 8229,
      "ĠiOS": 8230,
      "Both": 8231,
      "rison": 8232,
      "Ġentertainment": 8233,
      "Ġovers": 8234,
      "Ġawareness": 8235,
      "Ġconstitutional": 8236,
      "Ġnoise": 8237,
      "oured": 8238,
      "Ġregister": 8239,
      "ĠNavy": 8240,
      "Ġindicated": 8241,
      "ĠHard": 8242,
      "ĠDO": 8243,
      "Ġjury": 8244,
      "Ġhospitals": 8245,
      "Ġresource": 8246,
      "Ġaffordable": 8247,
      "rolled": 8248,
      "Ġtasks": 8249,
      "Ġ41": 8250,
      "Ġforecast": 8251,
      "??": 8252,
      "Sm": 8253,
      "Ms": 8254,
      "worth": 8255,
      "hot": 8256,
      "Ġbrew": 8257,
      "Ġgathered": 8258,
      "annels": 8259,
      "hour": 8260,
      "Ġmagn": 8261,
      "ca": 8262,
      "aping": 8263,
      "Ġclosing": 8264,
      "Ġpassengers": 8265,
      "ĠFair": 8266,
      "Ġperpet": 8267,
      "Ġthick": 8268,
      "maker": 8269,
      "Ġbarely": 8270,
      "SL": 8271,
      "Ġnoting": 8272,
      "rous": 8273,
      "Co": 8274,
      "Ġactors": 8275,
      "Star": 8276,
      "appy": 8277,
      "Ġfounded": 8278,
      "Ġchecks": 8279,
      "power": 8280,
      "Ġmenu": 8281,
      "ĠEnvironment": 8282,
      "Ġwheel": 8283,
      "ĠNote": 8284,
      "Ġinvolvement": 8285,
      "phones": 8286,
      "ĠFull": 8287,
      "Ġmonitoring": 8288,
      "Ġriver": 8289,
      "Ġimpeachment": 8290,
      "ĠHay": 8291,
      "Ġridic": 8292,
      "Ġliked": 8293,
      "Ġbail": 8294,
      "ĠTesla": 8295,
      "ĠRoyal": 8296,
      "Ġfriendly": 8297,
      "Ġinvited": 8298,
      "ami": 8299,
      "Ġreferendum": 8300,
      "Ġconnections": 8301,
      "ĠPatrick": 8302,
      "ifest": 8303,
      "Who": 8304,
      "ĠTown": 8305,
      "Ġterr": 8306,
      "Ġstructures": 8307,
      "Ġmel": 8308,
      "ĠInformation": 8309,
      "Ġtor": 8310,
      "Ġexceed": 8311,
      "Ġcongressional": 8312,
      "ĠClick": 8313,
      "Ġcable": 8314,
      "Ġretired": 8315,
      "Ġstadium": 8316,
      "Ġsettlement": 8317,
      "ĠAtlanta": 8318,
      "ĠPatri": 8319,
      "core": 8320,
      "Ġtargeting": 8321,
      "Ġpetition": 8322,
      "onic": 8323,
      "Ġextend": 8324,
      "sylvania": 8325,
      "ppers": 8326,
      "repre": 8327,
      "Ġhandling": 8328,
      "Ġhang": 8329,
      "Ġregulation": 8330,
      "See": 8331,
      "ĠLas": 8332,
      "Ġguarantee": 8333,
      "achus": 8334,
      "Ġindicate": 8335,
      "Ġhandful": 8336,
      "lete": 8337,
      "Ġdiversity": 8338,
      "Ġovert": 8339,
      "alling": 8340,
      "Ġ43": 8341,
      "yard": 8342,
      "FF": 8343,
      "Ġneutral": 8344,
      "ources": 8345,
      "ĠRomney": 8346,
      "Ġshit": 8347,
      "ĠRa": 8348,
      "Ġsteal": 8349,
      "migr": 8350,
      "Ġbranch": 8351,
      "arms": 8352,
      "dney": 8353,
      "usted": 8354,
      "ropri": 8355,
      "Ġincidents": 8356,
      "cling": 8357,
      "ĠTele": 8358,
      "ĠTenn": 8359,
      "Ġattempting": 8360,
      "base": 8361,
      "from": 8362,
      "Ġsamples": 8363,
      "ĠJay": 8364,
      "rives": 8365,
      "Ġfab": 8366,
      "who": 8367,
      "Ġwelf": 8368,
      "Ed": 8369,
      "Ġhide": 8370,
      "reprene": 8371,
      "Ġfulf": 8372,
      "Ġcollective": 8373,
      "Ġwages": 8374,
      "ĠRick": 8375,
      "ificial": 8376,
      "bec": 8377,
      "Ġasks": 8378,
      "Ġthousand": 8379,
      "ĠKat": 8380,
      "ĠShare": 8381,
      "Ġproducing": 8382,
      "Ġgrass": 8383,
      "adi": 8384,
      "umes": 8385,
      "heast": 8386,
      "Ġserves": 8387,
      "kens": 8388,
      "Ġwelfare": 8389,
      "Ġaddressed": 8390,
      "Ġprovin": 8391,
      "bi": 8392,
      "ogen": 8393,
      "Ġaffairs": 8394,
      "Ġinvestigations": 8395,
      "ĠCook": 8396,
      "Sub": 8397,
      "ĠKingdom": 8398,
      "Ġdynamic": 8399,
      "PG": 8400,
      "ĠHind": 8401,
      "Ġtrained": 8402,
      "Ġrecognized": 8403,
      "ĠRen": 8404,
      "Ġseemingly": 8405,
      "lah": 8406,
      "Ġcomic": 8407,
      "door": 8408,
      "ĠRose": 8409,
      "ĠHa": 8410,
      "upid": 8411,
      "Ġtracking": 8412,
      "Ġneuro": 8413,
      "Ġwalls": 8414,
      "Ġracism": 8415,
      "Ġadvocates": 8416,
      "Dav": 8417,
      "President": 8418,
      "Ġcitizen": 8419,
      "Ġloans": 8420,
      "Ġmedicine": 8421,
      "ĠOtt": 8422,
      "Ġtemperatures": 8423,
      "Ġoffices": 8424,
      "achusetts": 8425,
      "Ġtestimony": 8426,
      "ras": 8427,
      "izon": 8428,
      "Ġauto": 8429,
      "cience": 8430,
      "ĠDelhi": 8431,
      "ĠDet": 8432,
      "Ġtrave": 8433,
      "Ġfantasy": 8434,
      "ĠAnton": 8435,
      "Ġfeaturing": 8436,
      "Script": 8437,
      "ologists": 8438,
      "pat": 8439,
      "ĠSat": 8440,
      "Ġtransportation": 8441,
      "Ġcollapse": 8442,
      "Ġprotecting": 8443,
      "Ġshopping": 8444,
      "Ã¼": 8445,
      "Ġcontained": 8446,
      "Ġsmoke": 8447,
      "Ġdistributed": 8448,
      "Ġlayer": 8449,
      "Ġ46": 8450,
      "unior": 8451,
      "Ġimproving": 8452,
      "Where": 8453,
      "Will": 8454,
      "Ġnominee": 8455,
      "ĠThank": 8456,
      "ĠStone": 8457,
      "Ġtransgender": 8458,
      "Ġmissile": 8459,
      "Ġaccommod": 8460,
      "ĠMatthew": 8461,
      "Ġrestaurants": 8462,
      "ĠExt": 8463,
      "ĊĊĊĊĊĊĊ": 8464,
      "Ġanger": 8465,
      "PM": 8466,
      "ĠSquare": 8467,
      "Ġjur": 8468,
      "ĠBalt": 8469,
      "ported": 8470,
      "Ġanybody": 8471,
      "ĠPlus": 8472,
      "Ġminds": 8473,
      "Look": 8474,
      "Ġinquiry": 8475,
      "mary": 8476,
      "reate": 8477,
      "ĠLuc": 8478,
      "ĠKir": 8479,
      "comes": 8480,
      "ĠMarvel": 8481,
      "Ġcarefully": 8482,
      "mann": 8483,
      "Ġinnovation": 8484,
      "arrass": 8485,
      "Ġpractical": 8486,
      "Ġscores": 8487,
      "Ġpromises": 8488,
      "Ġlowest": 8489,
      "Ġdiscovery": 8490,
      "Ġgains": 8491,
      "Ġministry": 8492,
      "ester": 8493,
      "Ġhook": 8494,
      "ĠHD": 8495,
      "Ġvoter": 8496,
      "Ġepisodes": 8497,
      "Ġuniform": 8498,
      "Ġrespectively": 8499,
      "Ġappreciate": 8500,
      "ĠUlt": 8501,
      "Ġtomorrow": 8502,
      "Ġjudges": 8503,
      "king": 8504,
      "ĠSamsung": 8505,
      "Ġingred": 8506,
      "Ġcoaches": 8507,
      "Ġupl": 8508,
      "Ġasset": 8509,
      "ĠGolden": 8510,
      "Ġprinciple": 8511,
      "Ġprogramme": 8512,
      "Ġharassment": 8513,
      "har": 8514,
      "Ġranked": 8515,
      "Ġconsistently": 8516,
      "iel": 8517,
      "ĠHT": 8518,
      "Ġdescription": 8519,
      "Ġfrag": 8520,
      "54": 8521,
      "ĠGalaxy": 8522,
      "Ġsupplies": 8523,
      "Ġunpre": 8524,
      "Ġplate": 8525,
      "ĠSir": 8526,
      "Ġflash": 8527,
      "ivals": 8528,
      "arring": 8529,
      "Ġtrem": 8530,
      "Ġpremium": 8531,
      "ĠVice": 8532,
      "Ġindependence": 8533,
      "78": 8534,
      "TER": 8535,
      "RI": 8536,
      "ĠPerhaps": 8537,
      "intendo": 8538,
      "Ġelectronic": 8539,
      "Ġscream": 8540,
      "cific": 8541,
      "oen": 8542,
      "Ġmo": 8543,
      "Ġgear": 8544,
      "Ġdiverse": 8545,
      "Ġimprovement": 8546,
      "Ġcomputers": 8547,
      "Ġsalary": 8548,
      "ĠCoin": 8549,
      "Ġlegacy": 8550,
      "ĠÎ": 8551,
      "Ġdispl": 8552,
      "Ġreads": 8553,
      "ixed": 8554,
      "Ġequally": 8555,
      "Ġtechnique": 8556,
      "Ġremem": 8557,
      "ĠPennsylvania": 8558,
      "RS": 8559,
      "Ġcaptain": 8560,
      "Ġassociation": 8561,
      "Ġborrow": 8562,
      "ĠQueen": 8563,
      "Ġstatistics": 8564,
      "ĠAustin": 8565,
      "Ass": 8566,
      "ĠAD": 8567,
      "Ġtail": 8568,
      "Ġrook": 8569,
      "ERE": 8570,
      "ĠKansas": 8571,
      "ĠRadio": 8572,
      "Ġbeliefs": 8573,
      "Ġinvent": 8574,
      "ahu": 8575,
      "Ġren": 8576,
      "ni": 8577,
      "Ġopinions": 8578,
      "yo": 8579,
      "ĠVancouver": 8580,
      "unes": 8581,
      "Ġdestruction": 8582,
      "Ġestimate": 8583,
      "fol": 8584,
      "Ġsuffer": 8585,
      "Ġwarrant": 8586,
      "ĠNev": 8587,
      "Ġbars": 8588,
      "encing": 8589,
      "ĠAN": 8590,
      "Ġassessment": 8591,
      "Source": 8592,
      "Ġlocked": 8593,
      "Ġsurf": 8594,
      "Ġthrown": 8595,
      "Ġdrama": 8596,
      "Ġfiscal": 8597,
      "Ġcapabilities": 8598,
      "bridge": 8599,
      "Ġnormally": 8600,
      "Ġlegitimate": 8601,
      "Ġincl": 8602,
      "ĠSaf": 8603,
      "Ġpublication": 8604,
      "Ġcounts": 8605,
      "Ġunemployment": 8606,
      "ila": 8607,
      "ĠJustin": 8608,
      "Ġ(âĢľ": 8609,
      "Ġmarks": 8610,
      "inter": 8611,
      "ĠUtah": 8612,
      "Ġramp": 8613,
      "Ġefficiency": 8614,
      "dated": 8615,
      "fund": 8616,
      "Ġcustody": 8617,
      "53": 8618,
      "Ġsteel": 8619,
      "Ġbureau": 8620,
      "Ġdefine": 8621,
      "Ġweekly": 8622,
      "ĠSingapore": 8623,
      "Ġluck": 8624,
      "Ġspeaks": 8625,
      "Ġguidelines": 8626,
      "Ġversus": 8627,
      "ĠProfessor": 8628,
      "Ġdeadly": 8629,
      "Ġtokens": 8630,
      "ĠBall": 8631,
      "ĠPhilipp": 8632,
      "ĠAz": 8633,
      "ĠAllen": 8634,
      "Ġsoph": 8635,
      "Ġvary": 8636,
      "Ġtips": 8637,
      "ĠEngine": 8638,
      "Ġarray": 8639,
      "Ġattacking": 8640,
      "ĠSab": 8641,
      "ĠHawai": 8642,
      "Ġouts": 8643,
      "dog": 8644,
      "cover": 8645,
      "Ġintervention": 8646,
      "ĠRus": 8647,
      "ĠFurther": 8648,
      "ĠJam": 8649,
      "Ġcovering": 8650,
      "ĠLittle": 8651,
      "cedented": 8652,
      "Ġcorporations": 8653,
      "esh": 8654,
      "Ġnomination": 8655,
      "ĠStadium": 8656,
      "Ġdramatic": 8657,
      "ingu": 8658,
      "ourse": 8659,
      "agg": 8660,
      "ĠFootball": 8661,
      "elf": 8662,
      "ĠUse": 8663,
      "thon": 8664,
      "Ġinject": 8665,
      "Russ": 8666,
      "Ġreliable": 8667,
      "aed": 8668,
      "ultural": 8669,
      "EX": 8670,
      "ĠGer": 8671,
      "Ġfantastic": 8672,
      "unicip": 8673,
      "Ø§": 8674,
      "Ġrhet": 8675,
      "Ġfallen": 8676,
      "ĠRoss": 8677,
      "mir": 8678,
      "Ġultimate": 8679,
      "Ġlying": 8680,
      "Ġchannels": 8681,
      "Ġcos": 8682,
      "ĠTechnology": 8683,
      "Ġpref": 8684,
      "Ġfactory": 8685,
      "Ġaddresses": 8686,
      "Ġhumanity": 8687,
      "Ġdisagree": 8688,
      "Ġfestival": 8689,
      "Ġethnic": 8690,
      "Ġtheat": 8691,
      "Ġacknowledged": 8692,
      "ĠLA": 8693,
      "52": 8694,
      "Ġhardly": 8695,
      "Ġlists": 8696,
      "annon": 8697,
      "Ġlobby": 8698,
      "olis": 8699,
      "ĠMassachusetts": 8700,
      "Ġinvolves": 8701,
      "ĠArm": 8702,
      "ĠPent": 8703,
      "ĠXbox": 8704,
      "Ġ%": 8705,
      "Ġcenters": 8706,
      "ĠElizabeth": 8707,
      "ecutive": 8708,
      "itting": 8709,
      "Ġraces": 8710,
      "itar": 8711,
      "Ġwars": 8712,
      "Ġextraord": 8713,
      "Ġexpanded": 8714,
      "Her": 8715,
      "Ġvisiting": 8716,
      "Ã¤": 8717,
      "Ġcelebrate": 8718,
      "Ð°": 8719,
      "ĠField": 8720,
      "FA": 8721,
      "Ġpresidency": 8722,
      "ĠAst": 8723,
      "Ġbrill": 8724,
      "69": 8725,
      "oding": 8726,
      "Ġdepends": 8727,
      "low": 8728,
      "ĠPrince": 8729,
      "Ġasylum": 8730,
      "Ġprofits": 8731,
      "ĠPriv": 8732,
      "ĠHenry": 8733,
      "Ġgenetic": 8734,
      "Please": 8735,
      "VE": 8736,
      "case": 8737,
      "scale": 8738,
      "iverpool": 8739,
      "Ġhorror": 8740,
      "Ġproposals": 8741,
      "Ġintellectual": 8742,
      "igate": 8743,
      "Ġsugar": 8744,
      "inois": 8745,
      "yer": 8746,
      "ĠCode": 8747,
      "ĠStart": 8748,
      "Ġanxiety": 8749,
      "ĠGaza": 8750,
      "Ġbacter": 8751,
      "angel": 8752,
      "helsea": 8753,
      "ĠSpring": 8754,
      "Ġpurchased": 8755,
      "Ġignore": 8756,
      "ĠHur": 8757,
      "Ġcovers": 8758,
      "Ġstayed": 8759,
      "Ġwww": 8760,
      "eremy": 8761,
      "Ġmoon": 8762,
      "Ġconvinced": 8763,
      "Ġhelpful": 8764,
      "iences": 8765,
      "isp": 8766,
      "::": 8767,
      "Ġarrive": 8768,
      "aret": 8769,
      "Ġgrounds": 8770,
      "ĠFred": 8771,
      "ĠSydney": 8772,
      "backs": 8773,
      "Ġenormous": 8774,
      "een": 8775,
      "ĠEag": 8776,
      "SE": 8777,
      "Ġexit": 8778,
      "Ġreven": 8779,
      "Ġencouraged": 8780,
      "Ġcontroversy": 8781,
      "leveland": 8782,
      "AND": 8783,
      "geon": 8784,
      "ouch": 8785,
      "Ġcasual": 8786,
      "Ġraw": 8787,
      "keep": 8788,
      "ĠWW": 8789,
      "senal": 8790,
      "Ġabsence": 8791,
      "Ġalien": 8792,
      "ĠNever": 8793,
      "des": 8794,
      "Ġnotion": 8795,
      "conf": 8796,
      "Ġedition": 8797,
      "Ġmonthly": 8798,
      "inch": 8799,
      "Ġboat": 8800,
      "Ġdemanding": 8801,
      "Ġranks": 8802,
      "ĠMusic": 8803,
      "Ġblocked": 8804,
      "Ġterrorists": 8805,
      "Ġsubstantial": 8806,
      "Ġmilk": 8807,
      "ĠHead": 8808,
      "Ġlucky": 8809,
      "Ġclothes": 8810,
      "Ġlandscape": 8811,
      "Ġstolen": 8812,
      "udes": 8813,
      "ela": 8814,
      "Ġcareful": 8815,
      "ĠChristians": 8816,
      "Ġtweets": 8817,
      "ĠLatin": 8818,
      "Ġsenator": 8819,
      "Related": 8820,
      "Ġsubmit": 8821,
      "Ġlegs": 8822,
      "Ġfacilit": 8823,
      "ĠPit": 8824,
      "lahoma": 8825,
      "ifer": 8826,
      "Ġrepresenting": 8827,
      "Ġjoy": 8828,
      "ĠWhich": 8829,
      "holders": 8830,
      "ĠRand": 8831,
      "Ġabroad": 8832,
      "Ġtone": 8833,
      "omething": 8834,
      "ĠConnect": 8835,
      "ĠMexican": 8836,
      "Ġcontributions": 8837,
      "Ġviewed": 8838,
      "ĠDivision": 8839,
      "rets": 8840,
      "Ġfed": 8841,
      "ĠManagement": 8842,
      "Ġeastern": 8843,
      "ĠYemen": 8844,
      "ĠHo": 8845,
      "LA": 8846,
      "ĠNEW": 8847,
      "Ġcivilians": 8848,
      "Ġeuro": 8849,
      "kes": 8850,
      "Ġinsisted": 8851,
      "akh": 8852,
      "Ġpapers": 8853,
      "isa": 8854,
      "ĠIce": 8855,
      "Ġlands": 8856,
      "Your": 8857,
      "ĠMoon": 8858,
      "party": 8859,
      "plete": 8860,
      "Cons": 8861,
      "Ġpreparing": 8862,
      "ĠAdv": 8863,
      "ĠMean": 8864,
      "Ġhanded": 8865,
      "umin": 8866,
      "Ġ51": 8867,
      "Ġthrowing": 8868,
      "Ġneck": 8869,
      "Ġinvestments": 8870,
      "Ġwine": 8871,
      "Ġregulatory": 8872,
      "Ġdepression": 8873,
      "ĠBa": 8874,
      "claim": 8875,
      "ione": 8876,
      "mat": 8877,
      "rical": 8878,
      "Ġwallet": 8879,
      "Ġje": 8880,
      "Sen": 8881,
      "Ġmaintained": 8882,
      "inction": 8883,
      "Part": 8884,
      "ĠAnderson": 8885,
      "Ġembarrass": 8886,
      "Ġfunded": 8887,
      "About": 8888,
      "Ġbroader": 8889,
      "ĠBrew": 8890,
      "Ġham": 8891,
      "Ġwider": 8892,
      "ĠFamily": 8893,
      "51": 8894,
      "ĠCost": 8895,
      "ĠForm": 8896,
      "Act": 8897,
      "Ġincorpor": 8898,
      "Ġswing": 8899,
      "ĠMPs": 8900,
      "Ġastron": 8901,
      "RL": 8902,
      "uits": 8903,
      "wered": 8904,
      "Ġlets": 8905,
      "ĠBron": 8906,
      "Ġclar": 8907,
      "Ã¶": 8908,
      "Ġdrew": 8909,
      "Ġmistakes": 8910,
      "Ġdad": 8911,
      "she": 8912,
      "Ġsoil": 8913,
      "ĊĊĊĊĊĊĊĊ": 8914,
      "zed": 8915,
      "Ġupgrade": 8916,
      "Ġwedd": 8917,
      "rient": 8918,
      "EST": 8919,
      "ĠAle": 8920,
      "tenance": 8921,
      "ĠBureau": 8922,
      "Ġtransit": 8923,
      "ĠJenn": 8924,
      "imore": 8925,
      "including": 8926,
      "Ġreceiver": 8927,
      "high": 8928,
      "Ġdump": 8929,
      "iley": 8930,
      "zing": 8931,
      "cut": 8932,
      "ĠAud": 8933,
      "ĠMuseum": 8934,
      "ĠPot": 8935,
      "ĠRoy": 8936,
      "ĠSet": 8937,
      "Ġspoken": 8938,
      "........": 8939,
      "ĠGun": 8940,
      "Ġrom": 8941,
      "Ġlogic": 8942,
      "plate": 8943,
      "Ġbeauty": 8944,
      "allel": 8945,
      "Ġeligible": 8946,
      "ĠTok": 8947,
      "type": 8948,
      "Ġanniversary": 8949,
      "Ġindustries": 8950,
      "ĠColumbia": 8951,
      "Ġdismissed": 8952,
      "Ġpreced": 8953,
      "Ġfollowers": 8954,
      "Ġresponses": 8955,
      "Ġswim": 8956,
      "omes": 8957,
      "open": 8958,
      "ĠâĤ¬": 8959,
      "Ġmit": 8960,
      "Ġpersonality": 8961,
      "Ġstaying": 8962,
      "Ġrescue": 8963,
      "Ġpollution": 8964,
      "Ġanalyst": 8965,
      "Ġentr": 8966,
      "Ġuniversities": 8967,
      "ĠLiberal": 8968,
      "Ġcomprehensive": 8969,
      "Ġnewsletter": 8970,
      "Ġgam": 8971,
      "erts": 8972,
      "Ġmechanism": 8973,
      "ĠEPA": 8974,
      "Ġwrest": 8975,
      "Ġstages": 8976,
      "ĠThus": 8977,
      "ĠPass": 8978,
      "Ġsummit": 8979,
      "ordon": 8980,
      "Ġbreaks": 8981,
      "ĠUber": 8982,
      "stract": 8983,
      "Ġreplacement": 8984,
      "hop": 8985,
      "Ġshout": 8986,
      "rec": 8987,
      "Ġalarm": 8988,
      "ĠNATO": 8989,
      "Ġstrategies": 8990,
      "ji": 8991,
      "quest": 8992,
      "Ġmidfield": 8993,
      "Ġrepresentatives": 8994,
      "\">": 8995,
      "ĠSus": 8996,
      "Ġdiscount": 8997,
      "OK": 8998,
      "Dem": 8999,
      "fr": 9000,
      "itage": 9001,
      "Ġcooperation": 9002,
      "Ġ52": 9003,
      "Ġtries": 9004,
      "Ġattached": 9005,
      "Ġships": 9006,
      "ĠDoes": 9007,
      "assy": 9008,
      "Ġshr": 9009,
      "Ġrequested": 9010,
      "ĠFO": 9011,
      "Ġintroduce": 9012,
      "Ġwaters": 9013,
      "Ġinflation": 9014,
      "Ġmemo": 9015,
      "oints": 9016,
      "mony": 9017,
      "ĠAssociated": 9018,
      "ĠLow": 9019,
      "Ġpipeline": 9020,
      "ipal": 9021,
      "Sim": 9022,
      "Ġfossil": 9023,
      "ĠAp": 9024,
      "only": 9025,
      "eters": 9026,
      "eding": 9027,
      "rett": 9028,
      "ĠLewis": 9029,
      "Ġhal": 9030,
      "ĠKennedy": 9031,
      "800": 9032,
      "Ġscope": 9033,
      "ĠHarry": 9034,
      "Watch": 9035,
      "Ġphotograp": 9036,
      "Ġphilosophy": 9037,
      "Ġcolors": 9038,
      "Ġstruggled": 9039,
      "'.": 9040,
      "Ġblast": 9041,
      "icity": 9042,
      "âĶ": 9043,
      "Ġmanaging": 9044,
      "Ġspokeswoman": 9045,
      "ĠET": 9046,
      "Ġactively": 9047,
      "Yet": 9048,
      "made": 9049,
      "Ġpolitically": 9050,
      "ĠLeader": 9051,
      "aga": 9052,
      "ĠEthereum": 9053,
      "Ġconsensus": 9054,
      "Ġheadlines": 9055,
      "Ġrecruit": 9056,
      "97": 9057,
      "ĠLim": 9058,
      "ĠTai": 9059,
      "acted": 9060,
      "Ġguest": 9061,
      "Ġcompe": 9062,
      "Ġsubmitted": 9063,
      "ĠSuch": 9064,
      "Ġgal": 9065,
      "Ġborders": 9066,
      "PP": 9067,
      "Ġfocusing": 9068,
      "ĠLink": 9069,
      "Ġpresum": 9070,
      "Ġfruit": 9071,
      "Ġratings": 9072,
      "Ġmountain": 9073,
      "Ġtrigger": 9074,
      "iano": 9075,
      "Ġrelax": 9076,
      "vard": 9077,
      "Ġescal": 9078,
      "uction": 9079,
      "Ġprotein": 9080,
      "plus": 9081,
      "ĠPrice": 9082,
      "Ġentreprene": 9083,
      "pled": 9084,
      "Ġflags": 9085,
      "Ġsorry": 9086,
      "Ġnerv": 9087,
      "Ġbab": 9088,
      "arency": 9089,
      "vision": 9090,
      "Ġpermit": 9091,
      "acon": 9092,
      "Ġthrew": 9093,
      "Ġpursue": 9094,
      "through": 9095,
      "Ġcock": 9096,
      "olar": 9097,
      "Ġunprecedented": 9098,
      "argo": 9099,
      "ateral": 9100,
      "86": 9101,
      "Ġvirtually": 9102,
      "js": 9103,
      "Ġconcrete": 9104,
      "TON": 9105,
      "ĠRoberts": 9106,
      "ĠDenver": 9107,
      "ira": 9108,
      "))": 9109,
      "osi": 9110,
      "Ġbanking": 9111,
      "ĠIndust": 9112,
      "Ġinequ": 9113,
      "Ġpromising": 9114,
      "Ġcoc": 9115,
      "ĠAffairs": 9116,
      "ĠIllinois": 9117,
      "Ġunexpected": 9118,
      "minute": 9119,
      "Ġjoke": 9120,
      "osexual": 9121,
      "Ġlanguages": 9122,
      "ĠBor": 9123,
      "ĠCooper": 9124,
      "Ġadviser": 9125,
      "teen": 9126,
      "Ġlux": 9127,
      "ĠHell": 9128,
      "ĠNOT": 9129,
      "Ġhoped": 9130,
      "Ġlegislative": 9131,
      "Ġli": 9132,
      "Ġpredicted": 9133,
      "Ġconsole": 9134,
      "enth": 9135,
      "ĠPo": 9136,
      "rooms": 9137,
      "Ġtens": 9138,
      "Ġusage": 9139,
      "Ġviolation": 9140,
      "walk": 9141,
      "Comp": 9142,
      "Ġautonom": 9143,
      "ĠNintendo": 9144,
      "ctic": 9145,
      "Ġbrothers": 9146,
      "ĠFreedom": 9147,
      "Ġpharm": 9148,
      "Ġpros": 9149,
      "Ġstability": 9150,
      "Ġfalls": 9151,
      "SD": 9152,
      "Ġdates": 9153,
      "Ġproducers": 9154,
      "Ġinspect": 9155,
      "emed": 9156,
      "aware": 9157,
      "ĠSony": 9158,
      "Ġaims": 9159,
      "Ġignored": 9160,
      "Ġperforming": 9161,
      "AF": 9162,
      "Though": 9163,
      "ĠCleveland": 9164,
      "erted": 9165,
      "agh": 9166,
      "600": 9167,
      "ĠTro": 9168,
      "Ġconsent": 9169,
      "Ġprofessionals": 9170,
      "ĠAtlantic": 9171,
      "aus": 9172,
      "ĠArticle": 9173,
      "Ġrevel": 9174,
      "Ġthreatening": 9175,
      "Ġcriticized": 9176,
      "Ġdomain": 9177,
      "Ã¢": 9178,
      "ublished": 9179,
      "Ġguid": 9180,
      "iate": 9181,
      "shire": 9182,
      "Ġgrid": 9183,
      "Ġdeserve": 9184,
      "inf": 9185,
      "ĠTech": 9186,
      "ĠWalker": 9187,
      "merce": 9188,
      "acket": 9189,
      "Ġnaturally": 9190,
      "Ġclinical": 9191,
      "Ġsin": 9192,
      "Ġdeadline": 9193,
      "Back": 9194,
      "Ġbeach": 9195,
      "iece": 9196,
      "Ġprobe": 9197,
      "Ġrooms": 9198,
      "Ġpoly": 9199,
      "ĠKar": 9200,
      "ĠOrig": 9201,
      "Still": 9202,
      "ĠBroad": 9203,
      "Ġpopulations": 9204,
      "Story": 9205,
      "Ġhorse": 9206,
      "Ġnurs": 9207,
      "bury": 9208,
      "Ġstone": 9209,
      "Ġunions": 9210,
      "Ġstupid": 9211,
      "El": 9212,
      "ĠKu": 9213,
      "ĠUnfortunately": 9214,
      "ĠBattle": 9215,
      "Ġchapter": 9216,
      "Ġaccessible": 9217,
      "esty": 9218,
      "Ġrobot": 9219,
      "author": 9220,
      "ĠHistory": 9221,
      "Ġletting": 9222,
      "Ġdonations": 9223,
      "ĠList": 9224,
      "Ġdance": 9225,
      "ĠRos": 9226,
      "Ġease": 9227,
      "Ġoutlets": 9228,
      "isons": 9229,
      "ocument": 9230,
      "ĠMach": 9231,
      "Ke": 9232,
      "ĠAk": 9233,
      "Ġheadquarters": 9234,
      "Ġrender": 9235,
      "Ġgenerations": 9236,
      "Ġoverseas": 9237,
      "watch": 9238,
      "ĠOklahoma": 9239,
      "achel": 9240,
      "Ġduration": 9241,
      "ĠTour": 9242,
      "Ġsmartphone": 9243,
      "emit": 9244,
      "Ġscholars": 9245,
      "Ġquestioned": 9246,
      "Ġ->": 9247,
      "Ġprepar": 9248,
      "ĠHave": 9249,
      "Ġshoulder": 9250,
      "ĠStore": 9251,
      "Ġdub": 9252,
      "ped": 9253,
      "ĠCapital": 9254,
      "missions": 9255,
      "Ġemerging": 9256,
      "portation": 9257,
      "Out": 9258,
      "HS": 9259,
      "Ġclock": 9260,
      "Ġsurviv": 9261,
      "Ġreplied": 9262,
      "Ġodds": 9263,
      "Ġspots": 9264,
      "istant": 9265,
      "Ġthorough": 9266,
      "ection": 9267,
      "Ġtonight": 9268,
      "ĠRevolution": 9269,
      "Ġ1999": 9270,
      "Ġattitude": 9271,
      "News": 9272,
      "pire": 9273,
      "Ġmos": 9274,
      "Ġtie": 9275,
      "heim": 9276,
      "Ġhydro": 9277,
      "Ġexchanges": 9278,
      "ntil": 9279,
      "Ġmeaningful": 9280,
      "bors": 9281,
      "Ġconce": 9282,
      "ĠRs": 9283,
      "ĠPop": 9284,
      "Ġsatellite": 9285,
      "ais": 9286,
      "erver": 9287,
      "ĠRepresent": 9288,
      "ĠTri": 9289,
      "Ġdivided": 9290,
      "ĠDesign": 9291,
      "ĠPict": 9292,
      "Ġcomedy": 9293,
      "Ġsubjects": 9294,
      "Ġfro": 9295,
      "Ġves": 9296,
      "ĠGreek": 9297,
      "ĠâĢĿ": 9298,
      "ĠSometimes": 9299,
[...]
